#include "artifacts/model_data.h"

const unsigned int g_model_data_len = 59448;
const unsigned char g_model_data[] = {
  28,0,0,0,84,70,76,51,20,0,32,0,
  28,0,24,0,20,0,16,0,12,0,0,0,
  8,0,4,0,20,0,0,0,28,0,0,0,
  140,0,0,0,12,1,0,0,108,179,0,0,
  124,179,0,0,100,231,0,0,3,0,0,0,
  1,0,0,0,4,0,0,0,222,72,255,255,
  12,0,0,0,28,0,0,0,60,0,0,0,
  15,0,0,0,115,101,114,118,105,110,103,95,
  100,101,102,97,117,108,116,0,1,0,0,0,
  4,0,0,0,104,255,255,255,36,0,0,0,
  4,0,0,0,8,0,0,0,111,117,116,112,
  117,116,95,48,0,0,0,0,1,0,0,0,
  4,0,0,0,66,76,255,255,4,0,0,0,
  14,0,0,0,107,101,114,97,115,95,116,101,
  110,115,111,114,95,55,0,0,3,0,0,0,
  92,0,0,0,44,0,0,0,4,0,0,0,
  184,255,255,255,40,0,0,0,4,0,0,0,
  19,0,0,0,67,79,78,86,69,82,83,73,
  79,78,95,77,69,84,65,68,65,84,65,0,
  220,255,255,255,39,0,0,0,4,0,0,0,
  19,0,0,0,109,105,110,95,114,117,110,116,
  105,109,101,95,118,101,114,115,105,111,110,0,
  8,0,12,0,8,0,4,0,8,0,0,0,
  38,0,0,0,4,0,0,0,19,0,0,0,
  109,105,110,95,114,117,110,116,105,109,101,95,
  118,101,114,115,105,111,110,0,41,0,0,0,
  92,178,0,0,84,178,0,0,64,178,0,0,
  36,178,0,0,16,178,0,0,244,177,0,0,
  216,177,0,0,188,177,0,0,160,177,0,0,
  124,177,0,0,44,176,0,0,28,175,0,0,
  12,143,0,0,252,140,0,0,236,44,0,0,
  220,43,0,0,204,3,0,0,60,3,0,0,
  76,1,0,0,68,1,0,0,60,1,0,0,
  52,1,0,0,44,1,0,0,36,1,0,0,
  28,1,0,0,20,1,0,0,12,1,0,0,
  4,1,0,0,252,0,0,0,244,0,0,0,
  236,0,0,0,228,0,0,0,220,0,0,0,
  212,0,0,0,204,0,0,0,196,0,0,0,
  188,0,0,0,180,0,0,0,148,0,0,0,
  116,0,0,0,4,0,0,0,138,77,255,255,
  4,0,0,0,96,0,0,0,12,0,0,0,
  8,0,14,0,8,0,4,0,8,0,0,0,
  16,0,0,0,40,0,0,0,0,0,6,0,
  8,0,4,0,6,0,0,0,4,0,0,0,
  1,0,0,0,235,3,0,0,12,0,24,0,
  20,0,16,0,12,0,4,0,12,0,0,0,
  99,144,130,75,54,168,95,125,2,0,0,0,
  2,0,0,0,4,0,0,0,6,0,0,0,
  50,46,49,57,46,48,0,0,246,77,255,255,
  4,0,0,0,16,0,0,0,0,0,0,0,
  0,0,0,0,0,0,0,0,0,0,0,0,
  18,78,255,255,4,0,0,0,16,0,0,0,
  49,46,49,52,46,48,0,0,0,0,0,0,
  0,0,0,0,180,27,255,255,184,27,255,255,
  188,27,255,255,192,27,255,255,196,27,255,255,
  200,27,255,255,204,27,255,255,208,27,255,255,
  212,27,255,255,216,27,255,255,220,27,255,255,
  224,27,255,255,228,27,255,255,232,27,255,255,
  236,27,255,255,240,27,255,255,244,27,255,255,
  248,27,255,255,252,27,255,255,122,78,255,255,
  4,0,0,0,224,1,0,0,68,25,129,211,
  66,59,6,98,130,116,71,11,219,59,222,229,
  90,22,11,5,183,191,18,186,16,177,129,199,
  245,190,71,61,52,241,192,14,226,239,127,74,
  177,54,201,24,116,178,187,251,63,129,11,88,
  138,197,57,250,216,53,173,63,39,66,39,246,
  165,37,89,173,224,7,236,200,242,129,0,143,
  244,194,159,165,115,241,181,101,140,74,105,228,
  127,20,230,64,235,5,115,55,245,24,206,209,
  129,221,194,166,36,162,129,116,179,0,23,135,
  199,76,139,109,75,143,41,61,240,190,99,180,
  146,9,54,95,235,247,127,104,193,204,59,191,
  21,104,173,188,60,37,216,127,89,247,112,46,
  60,20,207,99,182,11,98,160,195,65,138,36,
  99,69,127,226,14,226,196,9,129,16,19,146,
  52,178,10,5,24,134,191,190,27,61,125,88,
  113,98,101,145,67,55,226,127,8,25,243,181,
  164,214,129,151,8,62,111,164,187,88,100,52,
  229,67,25,11,13,36,192,53,70,177,26,169,
  129,235,16,154,223,176,173,194,177,6,227,214,
  127,20,52,39,28,13,109,46,59,113,182,23,
  129,143,33,45,235,90,19,85,20,187,255,38,
  221,187,10,93,227,148,217,184,206,61,129,26,
  87,131,153,103,42,66,31,75,39,129,74,98,
  19,99,77,196,250,60,215,21,194,127,45,13,
  30,207,70,134,13,5,98,61,177,247,98,129,
  84,119,227,25,101,161,125,126,153,6,110,240,
  245,167,175,86,179,160,21,129,237,219,160,12,
  219,234,127,144,9,195,44,255,194,5,141,41,
  69,156,221,199,136,127,28,242,47,180,178,242,
  0,179,76,198,240,227,202,160,188,56,202,129,
  211,31,149,158,167,221,116,165,181,197,53,228,
  152,248,198,71,121,110,76,118,21,35,127,92,
  145,227,41,26,78,8,218,106,218,80,88,30,
  227,15,42,129,55,194,2,127,247,185,127,201,
  85,5,167,150,90,209,78,124,251,79,191,63,
  127,57,37,0,217,51,172,212,0,61,254,129,
  23,19,173,211,170,200,187,189,153,230,149,151,
  50,35,76,127,225,12,51,239,92,5,229,114,
  76,67,223,215,232,87,159,42,161,44,25,0,
  28,165,13,127,16,235,78,248,102,80,255,255,
  4,0,0,0,128,0,0,0,142,1,0,0,
  87,0,0,0,3,255,255,255,220,255,255,255,
  235,255,255,255,13,0,0,0,19,0,0,0,
  23,0,0,0,236,255,255,255,221,255,255,255,
  57,1,0,0,241,0,0,0,167,255,255,255,
  14,0,0,0,233,255,255,255,23,0,0,0,
  237,255,255,255,39,1,0,0,193,255,255,255,
  234,255,255,255,250,0,0,0,250,254,255,255,
  65,0,0,0,0,0,0,0,181,1,0,0,
  193,255,255,255,18,0,0,0,248,255,255,255,
  251,255,255,255,196,0,0,0,231,255,255,255,
  8,0,0,0,242,80,255,255,4,0,0,0,
  0,40,0,0,213,10,26,53,62,221,60,243,
  117,26,224,247,16,21,37,249,97,184,81,127,
  25,10,19,248,88,88,120,31,94,187,51,245,
  240,44,212,205,7,20,10,5,123,212,196,38,
  66,100,213,233,220,86,75,74,181,253,9,87,
  197,88,45,173,63,250,108,21,200,195,174,87,
  98,200,2,72,4,71,206,51,97,23,211,16,
  11,246,226,63,46,175,43,223,197,223,93,252,
  74,184,52,244,23,7,85,35,241,198,202,19,
  50,7,81,37,246,14,13,253,60,195,71,37,
  218,246,28,50,227,52,232,210,183,177,54,103,
  230,32,186,51,86,68,118,184,64,94,232,81,
  126,122,53,34,254,64,84,88,5,169,236,60,
  32,69,17,219,59,225,70,86,251,24,22,236,
  188,36,248,232,228,233,220,47,17,208,226,55,
  45,74,221,180,213,29,15,251,74,168,35,29,
  213,8,190,204,25,99,179,18,16,214,71,4,
  238,206,4,24,162,53,193,212,0,55,231,186,
  217,27,213,246,39,225,226,213,48,62,208,242,
  245,80,2,11,197,240,43,39,46,234,60,209,
  175,254,214,242,29,4,187,232,255,229,255,203,
  69,227,39,220,19,50,241,245,231,109,160,40,
  198,30,18,40,249,205,8,65,181,227,243,240,
  231,48,129,43,230,90,8,32,251,17,231,4,
  20,8,5,49,67,109,249,225,36,7,20,249,
  211,215,22,69,232,243,62,44,231,22,19,177,
  220,71,23,204,10,18,30,36,40,243,45,39,
  212,218,230,216,48,0,185,82,57,67,239,42,
  146,176,68,249,236,100,52,251,191,27,46,49,
  227,206,7,233,247,243,166,81,40,96,51,97,
  12,12,250,167,216,121,5,39,27,209,41,220,
  62,36,244,247,56,108,215,44,241,216,232,37,
  212,182,248,71,190,241,113,2,85,206,198,197,
  55,13,99,200,19,167,87,253,59,67,65,45,
  200,15,241,218,141,56,207,249,22,190,217,56,
  21,200,40,45,83,248,178,167,251,9,62,181,
  216,19,111,246,85,82,234,217,184,245,252,62,
  212,2,39,233,172,129,200,106,197,250,15,56,
  246,199,222,22,27,26,90,220,164,200,1,235,
  55,223,71,36,246,197,102,9,211,32,225,204,
  56,194,233,81,12,249,214,12,233,235,167,237,
  214,75,220,253,47,245,127,155,22,66,220,17,
  169,244,70,98,178,59,17,235,219,245,218,71,
  26,57,205,109,225,193,199,230,253,67,72,24,
  207,247,111,209,233,103,213,102,9,23,46,82,
  70,5,83,161,252,239,22,78,251,218,234,102,
  246,239,65,75,254,99,40,54,252,79,10,229,
  19,27,42,226,206,228,55,212,222,71,230,250,
  219,45,23,26,78,104,31,83,38,232,24,245,
  2,32,78,52,199,206,91,22,100,223,203,197,
  183,248,90,32,188,13,1,188,247,62,64,71,
  217,228,50,70,96,85,5,86,253,90,9,245,
  196,230,77,232,4,57,231,20,200,79,211,15,
  42,30,226,48,25,24,217,113,232,178,100,51,
  204,75,225,4,39,85,212,137,73,9,10,91,
  15,243,64,4,254,73,244,43,212,41,63,225,
  193,153,189,43,175,25,117,241,25,207,220,0,
  65,114,224,161,39,250,29,105,70,162,13,29,
  69,40,22,8,201,103,61,82,232,23,43,234,
  175,62,29,199,84,254,85,200,240,78,9,168,
  104,143,234,0,210,219,255,59,213,94,5,34,
  230,121,38,62,211,227,225,225,203,235,64,56,
  36,39,51,188,78,7,186,22,59,222,39,219,
  65,172,7,102,214,127,12,202,192,54,92,242,
  55,9,77,70,245,196,97,13,21,64,208,2,
  250,93,205,177,20,233,231,17,20,228,79,39,
  225,43,188,239,14,115,36,26,231,162,39,4,
  6,25,194,43,79,249,98,37,189,83,27,17,
  190,110,240,1,66,249,38,242,184,77,58,243,
  70,63,3,6,53,57,170,241,2,198,36,27,
  37,63,87,190,97,52,0,235,206,33,89,237,
  74,82,91,241,242,243,171,253,85,71,202,67,
  212,40,57,67,27,208,211,75,98,21,73,32,
  190,52,66,182,167,10,59,184,215,204,54,28,
  223,219,25,244,190,217,250,190,162,29,4,234,
  163,10,196,104,43,220,211,78,185,31,160,194,
  228,253,127,23,214,240,228,244,0,216,178,42,
  13,210,243,66,176,6,47,243,184,21,248,121,
  124,197,2,36,39,219,26,25,227,240,255,9,
  214,194,63,232,14,238,19,82,219,79,5,61,
  10,80,159,243,233,185,242,225,225,118,97,86,
  14,49,111,171,203,118,213,107,55,199,14,109,
  245,153,217,106,50,8,26,17,20,75,236,222,
  74,228,216,11,1,44,73,193,84,236,92,203,
  2,107,219,243,10,189,241,217,2,142,89,84,
  32,66,29,206,40,199,85,16,7,242,16,119,
  228,218,225,230,53,91,7,61,77,57,112,102,
  51,231,230,115,61,143,64,90,158,242,213,27,
  231,25,243,23,85,214,10,54,121,244,184,93,
  43,36,93,202,80,29,40,2,252,93,92,213,
  75,129,94,212,170,56,62,40,40,237,80,49,
  95,216,8,63,52,2,24,240,10,217,210,175,
  73,99,68,71,202,242,78,239,1,178,108,97,
  7,109,182,23,37,205,5,50,181,34,232,90,
  90,60,99,77,52,41,253,47,192,16,79,229,
  61,218,209,17,226,230,206,31,228,200,8,61,
  82,6,57,216,224,25,196,89,115,0,42,0,
  73,172,30,34,174,127,64,89,73,178,194,66,
  47,175,235,59,36,211,77,78,84,244,82,52,
  13,206,211,100,79,239,109,60,84,67,234,82,
  181,23,236,80,195,245,31,237,82,211,14,227,
  58,213,49,201,223,241,235,5,35,18,235,62,
  5,86,253,83,2,202,255,233,171,24,94,228,
  211,255,24,24,250,249,17,3,231,194,91,83,
  85,36,3,222,193,236,152,231,48,95,85,98,
  2,247,3,52,27,24,50,39,22,223,46,225,
  250,173,207,26,3,47,73,33,221,91,101,226,
  187,64,248,23,91,85,212,170,60,234,90,30,
  19,97,8,48,10,44,221,253,249,230,86,64,
  72,34,31,12,235,30,82,92,80,96,167,232,
  99,37,111,234,253,136,207,183,78,31,22,227,
  59,252,28,127,249,113,94,206,226,50,57,20,
  71,50,92,216,229,53,151,183,22,196,56,62,
  30,4,253,17,5,62,50,203,27,76,215,231,
  202,8,65,186,226,26,188,38,24,48,104,220,
  13,126,160,32,251,252,17,54,227,177,203,214,
  81,29,191,252,106,79,206,72,187,124,26,192,
  103,6,231,51,21,188,219,238,93,221,183,231,
  21,250,25,59,122,130,224,52,59,89,202,211,
  101,35,31,19,180,22,93,7,232,116,186,193,
  10,218,79,125,183,197,73,61,211,81,107,224,
  73,50,40,214,200,127,199,226,87,223,33,237,
  63,211,102,1,197,37,35,220,240,229,24,11,
  181,20,192,233,103,90,35,251,217,79,77,0,
  252,34,32,75,42,223,1,14,229,73,30,226,
  220,238,229,110,221,239,22,212,178,254,188,213,
  105,115,254,1,68,108,162,69,245,21,15,88,
  71,51,41,194,42,192,52,38,30,57,193,95,
  22,45,69,115,217,61,207,201,98,48,106,59,
  226,184,204,32,27,104,240,22,26,237,174,218,
  238,18,227,25,58,50,219,48,220,203,235,77,
  235,225,218,36,75,125,13,242,95,234,13,11,
  161,61,223,235,237,63,216,241,50,242,230,38,
  79,227,42,111,28,46,175,116,153,108,1,252,
  182,102,127,27,22,216,30,98,29,18,54,56,
  58,28,46,67,166,46,221,254,211,30,49,151,
  78,76,170,15,237,217,65,3,235,52,197,198,
  42,49,247,231,248,74,215,26,67,245,67,61,
  42,219,241,6,47,9,251,67,234,55,62,60,
  175,197,216,25,60,33,201,18,192,12,54,27,
  95,50,111,77,42,44,89,37,33,45,239,3,
  235,240,251,234,179,41,12,4,5,31,245,8,
  195,85,207,203,35,43,175,63,39,90,219,183,
  215,161,251,18,135,238,205,200,194,89,88,205,
  41,250,64,88,157,249,86,233,231,151,68,243,
  153,54,78,66,76,10,255,160,28,247,74,89,
  1,89,98,173,165,240,219,141,179,1,16,97,
  53,42,234,43,35,17,233,207,129,220,80,246,
  224,9,196,213,200,41,209,179,187,103,225,81,
  47,209,218,187,43,67,202,202,90,75,251,50,
  245,33,20,187,164,254,58,78,199,14,6,61,
  219,30,8,183,232,51,20,26,21,159,60,249,
  207,72,45,185,76,255,24,241,176,220,63,200,
  159,39,244,228,209,246,232,1,250,22,241,3,
  245,74,14,211,7,8,45,201,243,92,229,15,
  8,79,28,55,30,209,39,11,178,20,8,26,
  22,250,219,12,9,70,28,178,248,37,1,38,
  37,246,249,251,18,40,18,210,49,76,39,232,
  205,5,29,7,139,230,32,38,226,245,15,24,
  254,51,10,175,187,39,233,233,8,163,54,197,
  16,67,246,8,66,186,190,251,113,213,13,201,
  251,40,69,60,84,238,20,29,69,21,93,127,
  194,165,31,42,63,236,10,238,95,0,115,108,
  54,199,165,18,227,86,59,28,82,229,23,182,
  230,68,223,55,104,44,71,31,68,247,82,211,
  174,190,207,189,55,218,12,100,60,153,153,55,
  239,52,2,227,241,164,43,255,212,33,247,34,
  253,31,246,71,198,233,94,18,11,27,189,31,
  49,12,97,252,243,172,252,90,239,80,235,21,
  51,190,90,208,5,62,250,79,100,203,55,9,
  213,161,26,200,248,246,193,23,4,62,69,121,
  71,234,30,35,115,205,103,218,83,147,110,198,
  47,234,226,94,105,66,13,118,245,235,1,95,
  20,31,53,61,36,145,33,26,234,56,220,101,
  19,35,101,202,84,185,6,18,202,103,238,223,
  7,55,80,253,65,21,27,21,84,252,227,196,
  59,249,83,1,219,72,229,86,103,11,232,65,
  197,45,70,57,32,249,16,0,217,192,199,67,
  27,36,57,52,254,25,65,247,53,1,221,220,
  241,213,188,57,13,33,71,226,212,4,218,76,
  241,64,115,26,251,243,31,35,55,214,21,239,
  243,198,236,23,32,89,85,104,23,4,171,7,
  21,242,232,32,210,23,58,248,228,60,59,30,
  40,9,15,96,183,41,252,75,227,75,94,195,
  212,28,238,127,254,211,44,243,45,73,52,28,
  76,175,25,39,202,228,63,210,87,47,237,14,
  196,20,32,27,41,52,42,199,98,25,73,235,
  104,77,66,244,240,75,233,70,129,60,226,167,
  49,103,24,234,201,27,32,204,228,11,8,193,
  175,22,225,2,6,52,119,223,107,79,231,23,
  249,29,174,221,253,28,246,217,241,207,75,254,
  38,8,94,108,217,39,71,3,203,179,25,157,
  225,163,78,123,109,201,194,50,48,49,68,4,
  190,159,49,206,225,43,96,233,211,6,218,234,
  3,80,100,209,254,230,80,48,233,49,238,116,
  21,12,55,59,171,64,160,141,202,48,72,56,
  172,57,212,206,8,236,100,81,151,219,242,8,
  139,35,26,180,58,168,255,25,11,242,27,83,
  192,58,135,9,10,72,58,210,31,174,253,160,
  200,4,11,51,226,220,73,201,173,196,193,155,
  206,139,190,171,73,200,237,3,253,74,39,42,
  243,8,249,67,61,12,244,113,230,234,35,8,
  18,152,38,249,91,57,195,232,63,230,77,98,
  225,167,176,23,13,2,102,79,63,200,217,249,
  67,252,196,18,5,212,46,102,253,185,168,54,
  234,253,71,203,41,196,24,66,40,165,170,243,
  53,238,127,205,7,248,39,232,51,79,243,9,
  69,184,95,29,3,191,21,208,8,27,218,249,
  30,222,76,204,43,221,185,76,83,31,41,81,
  105,235,40,193,35,114,6,74,40,13,100,19,
  24,173,187,217,248,56,248,81,28,232,36,61,
  46,243,207,13,49,13,7,57,14,55,32,192,
  78,116,182,67,45,216,77,56,249,26,190,61,
  206,35,3,20,254,30,58,209,246,1,0,180,
  129,35,241,24,219,46,206,69,59,25,241,206,
  236,223,227,202,26,232,251,195,47,34,50,28,
  159,221,218,172,244,226,76,244,213,69,248,66,
  50,248,227,235,23,25,162,211,4,0,58,185,
  57,208,242,232,216,26,50,23,240,224,255,181,
  28,44,53,191,135,230,214,54,22,63,208,76,
  19,36,230,247,221,225,28,188,57,39,17,244,
  27,237,215,84,162,14,199,184,7,45,7,208,
  148,235,39,224,55,23,26,244,254,254,155,41,
  168,29,208,193,76,26,220,235,60,209,24,40,
  232,20,244,238,248,206,240,188,134,56,238,68,
  226,232,233,68,15,205,142,224,210,182,47,240,
  243,202,1,153,221,1,21,30,197,43,202,154,
  44,48,243,113,67,218,237,195,244,216,194,206,
  51,194,197,84,221,191,246,79,235,8,79,96,
  62,192,15,154,253,34,14,77,21,32,15,72,
  102,32,11,209,129,232,246,230,38,58,227,228,
  216,97,76,42,184,33,105,250,3,72,42,165,
  17,19,53,205,27,221,222,49,15,167,31,38,
  222,41,10,20,244,43,79,38,0,51,62,90,
  236,83,11,249,252,11,66,200,212,231,94,49,
  54,217,27,109,96,187,249,229,36,33,217,215,
  32,53,213,54,97,251,233,60,209,237,79,83,
  5,207,255,255,91,15,63,43,206,242,186,12,
  245,203,181,0,244,178,22,26,213,196,225,13,
  73,231,11,71,180,0,69,38,203,249,249,169,
  4,176,227,99,245,55,65,71,200,211,176,70,
  230,121,45,233,91,25,14,26,170,159,233,61,
  239,31,46,56,192,116,51,102,228,173,63,49,
  148,24,47,15,92,80,187,243,71,90,182,161,
  29,22,53,219,66,178,17,39,3,22,232,229,
  148,16,94,251,53,210,172,61,36,27,103,221,
  226,60,167,23,218,127,22,8,49,215,226,6,
  57,150,103,238,21,11,36,205,172,23,39,7,
  212,160,68,21,145,43,84,214,205,11,6,241,
  54,24,51,225,237,33,82,82,41,242,10,33,
  209,50,177,1,249,103,2,106,252,43,38,188,
  3,249,70,24,236,64,230,62,109,111,170,220,
  97,194,106,220,33,214,98,72,0,239,82,63,
  34,243,24,225,196,4,232,16,34,10,37,54,
  207,60,219,76,76,73,58,69,11,45,201,71,
  212,219,72,226,250,255,29,38,189,5,0,5,
  4,222,213,65,219,78,90,1,27,13,230,62,
  220,31,28,193,33,199,56,30,15,254,74,62,
  9,46,211,223,29,246,4,222,12,170,254,56,
  193,55,18,37,25,12,223,187,250,127,232,221,
  29,207,3,47,252,244,32,63,9,58,207,11,
  181,255,99,60,54,2,199,10,14,12,72,21,
  37,39,209,1,36,44,231,230,9,50,52,91,
  193,7,10,248,26,175,54,186,198,32,51,11,
  27,21,181,106,204,2,18,45,247,69,176,3,
  246,48,13,199,95,184,26,241,251,56,95,9,
  60,40,247,246,22,75,93,3,192,179,60,67,
  17,5,2,253,39,75,64,224,199,247,5,70,
  102,84,207,12,26,30,50,127,218,188,236,6,
  98,14,199,81,251,165,174,245,27,224,18,12,
  210,1,87,69,122,31,37,204,87,116,100,213,
  19,40,202,73,79,77,247,193,182,101,76,73,
  41,56,68,244,218,253,174,184,91,57,242,4,
  232,36,252,243,97,253,229,35,54,183,65,31,
  169,174,163,52,243,10,74,180,245,199,209,64,
  208,99,9,72,75,75,26,36,68,214,216,249,
  53,65,250,183,32,183,8,8,168,59,25,0,
  91,213,36,75,93,85,24,240,7,33,181,60,
  74,36,75,239,122,35,62,167,69,49,94,52,
  43,78,3,32,64,175,49,176,230,2,235,73,
  210,239,34,197,238,74,18,211,127,27,70,89,
  68,237,209,221,44,19,12,105,23,56,223,31,
  16,9,239,49,94,72,230,199,113,67,25,71,
  121,182,173,115,31,0,244,61,13,236,73,239,
  218,4,21,61,116,232,46,229,197,30,204,94,
  73,90,203,32,213,22,14,245,246,64,172,2,
  119,184,87,76,220,214,6,190,217,14,116,225,
  42,18,21,115,45,199,170,222,14,214,209,202,
  25,37,80,219,32,37,42,82,111,222,232,76,
  7,229,214,15,12,30,56,75,14,189,248,127,
  53,28,196,219,18,222,241,191,9,254,62,23,
  241,193,150,100,221,232,15,216,218,48,98,62,
  241,9,80,239,25,236,50,112,42,198,5,35,
  79,225,15,43,55,8,33,22,189,42,219,13,
  66,13,195,48,216,157,29,222,151,89,239,206,
  41,32,163,12,53,114,64,218,240,253,186,235,
  185,89,234,228,241,103,171,194,224,207,91,254,
  10,216,251,233,2,5,224,198,80,74,200,168,
  35,127,49,243,69,182,163,61,171,221,38,253,
  205,54,230,51,190,194,87,17,24,222,72,211,
  223,216,247,26,254,220,9,19,51,236,59,25,
  197,55,33,58,47,238,233,92,208,112,17,234,
  11,217,52,232,73,208,37,55,34,243,214,250,
  96,64,36,201,169,21,37,15,61,98,175,194,
  174,251,183,119,69,11,211,252,239,81,66,194,
  93,231,229,231,199,78,105,41,229,67,79,43,
  192,103,61,62,253,46,45,69,47,232,208,97,
  244,208,222,20,237,188,153,203,46,35,207,252,
  54,236,1,239,235,35,174,231,13,221,91,74,
  191,24,236,39,227,43,212,6,15,229,66,50,
  61,28,49,185,12,68,35,186,227,249,249,60,
  40,184,184,169,202,248,247,108,4,45,15,66,
  216,234,215,199,233,191,12,227,184,227,28,199,
  196,127,19,255,165,25,251,66,203,34,200,40,
  62,210,84,95,230,41,2,74,247,193,38,252,
  7,12,36,245,208,90,213,199,50,46,195,39,
  39,54,7,229,207,7,49,147,61,197,242,205,
  66,7,22,89,1,52,35,190,45,207,70,86,
  251,29,55,238,18,114,209,94,197,41,250,5,
  21,213,25,6,94,199,255,98,191,241,46,74,
  18,15,59,93,205,28,234,5,236,56,112,61,
  250,41,255,41,33,240,16,20,8,5,235,223,
  215,54,32,233,202,29,28,89,209,16,62,243,
  236,6,11,195,18,34,55,222,11,167,38,95,
  200,252,37,224,228,13,6,59,13,54,8,197,
  65,11,25,226,187,61,240,64,240,68,213,90,
  248,32,22,215,241,28,12,245,251,100,198,63,
  79,180,249,84,65,19,59,210,233,214,214,41,
  199,10,193,250,67,243,157,249,233,255,1,41,
  227,224,233,93,170,127,192,94,10,180,52,254,
  210,43,169,27,40,75,236,72,26,46,19,58,
  193,204,161,200,211,3,64,37,253,34,197,250,
  238,212,36,25,101,39,73,48,176,169,170,8,
  68,27,173,49,72,8,1,67,54,213,78,99,
  48,197,191,3,75,60,215,74,247,57,62,195,
  208,215,230,65,27,239,229,6,236,236,248,8,
  238,46,220,34,223,17,95,251,216,216,44,198,
  24,1,195,202,77,97,95,69,200,197,85,196,
  249,182,43,78,42,45,98,235,21,9,223,238,
  203,254,214,104,254,219,46,57,64,93,201,72,
  82,97,90,13,232,55,93,61,21,205,38,34,
  194,7,81,248,222,2,195,127,9,1,237,51,
  49,35,56,253,70,84,75,202,6,211,100,34,
  195,52,80,41,214,74,221,2,188,7,81,83,
  21,36,249,53,9,83,20,7,53,82,200,227,
  38,23,226,44,39,50,62,241,216,224,220,0,
  218,227,7,215,47,238,62,72,71,44,255,73,
  251,55,17,18,28,233,245,238,252,246,205,194,
  249,206,47,176,191,75,53,192,178,127,110,17,
  83,68,200,240,158,211,173,228,59,18,28,217,
  2,184,196,206,155,39,21,48,165,161,222,254,
  243,6,20,31,37,99,244,5,83,253,197,190,
  225,88,234,32,234,109,245,66,194,174,204,30,
  176,232,228,198,191,220,69,185,247,83,210,43,
  217,27,87,188,218,253,238,5,204,205,37,15,
  220,35,48,8,63,7,69,48,192,8,242,23,
  219,65,223,67,65,117,248,35,43,96,247,44,
  1,63,185,61,248,207,68,8,55,74,41,244,
  213,47,253,56,189,112,47,207,61,182,193,57,
  238,88,37,176,237,120,89,60,232,113,84,14,
  17,228,19,25,239,203,86,33,172,166,202,181,
  203,11,210,4,112,39,169,181,202,101,249,59,
  61,51,7,209,78,225,87,58,186,1,1,201,
  107,255,3,253,224,16,228,229,56,246,24,200,
  27,16,210,183,17,15,76,212,94,170,61,184,
  238,3,66,68,183,26,78,238,58,42,97,252,
  234,11,31,5,11,127,243,64,108,6,4,171,
  195,101,240,34,104,243,225,86,66,44,57,80,
  205,250,191,58,250,184,253,46,214,35,218,253,
  196,120,207,33,53,211,252,38,8,106,106,5,
  93,193,249,213,230,71,60,217,12,27,3,229,
  217,55,86,181,211,35,203,230,71,65,52,26,
  78,45,201,201,181,89,253,74,11,11,253,187,
  66,4,17,87,181,230,187,56,89,187,72,94,
  67,197,177,235,202,208,205,45,36,206,106,231,
  204,47,179,10,44,226,94,16,150,74,14,157,
  25,180,41,239,38,188,64,0,3,245,167,237,
  22,23,44,4,76,175,84,221,228,61,52,6,
  176,236,241,88,11,252,255,159,229,157,81,90,
  32,27,75,126,15,151,238,205,36,39,42,51,
  16,3,233,1,47,239,218,95,173,29,245,54,
  248,225,91,26,2,27,102,47,197,243,42,49,
  76,44,32,29,29,38,32,255,167,52,27,98,
  24,227,222,54,170,233,26,53,174,195,53,164,
  66,236,203,7,235,161,30,246,22,241,236,229,
  65,178,23,68,198,190,69,32,108,243,182,248,
  3,129,99,104,194,239,210,30,229,252,61,91,
  208,198,69,90,82,203,203,49,38,89,12,183,
  33,104,122,68,28,223,36,12,12,20,47,234,
  21,38,27,51,78,29,237,61,221,71,213,249,
  78,35,227,232,29,77,14,189,9,117,252,7,
  30,63,60,123,203,247,190,197,41,50,242,11,
  201,195,205,105,57,82,225,208,83,255,193,68,
  222,33,245,237,35,53,80,71,72,232,229,100,
  226,176,247,247,216,249,58,60,15,192,38,86,
  255,253,202,6,127,198,99,230,254,16,213,67,
  59,206,11,191,99,239,14,77,177,10,189,10,
  228,61,64,223,93,3,96,26,185,6,58,97,
  67,234,83,235,206,46,37,87,80,109,82,79,
  104,27,79,38,31,29,18,17,248,61,230,79,
  89,69,232,60,192,79,54,175,192,167,2,46,
  63,97,212,248,34,81,215,238,43,91,234,217,
  177,71,121,10,85,34,10,224,76,67,112,223,
  229,82,235,41,86,5,189,9,212,78,39,226,
  24,78,172,63,192,241,242,200,74,216,239,49,
  163,86,174,4,64,201,71,10,48,21,39,90,
  15,26,200,54,167,248,235,249,246,84,87,239,
  0,255,222,59,6,109,24,44,226,209,236,241,
  234,3,83,72,44,85,224,189,9,68,188,39,
  210,52,4,36,232,193,179,222,56,58,9,218,
  232,88,241,127,68,165,153,49,25,202,106,16,
  241,79,176,148,0,16,6,30,153,21,171,68,
  254,147,66,179,237,20,54,147,136,117,77,255,
  187,189,222,154,88,234,224,255,36,249,0,26,
  160,4,72,235,129,164,233,238,194,218,13,36,
  49,228,186,247,39,102,77,234,17,214,236,141,
  27,1,54,37,7,102,22,231,234,214,98,200,
  160,156,93,66,146,221,188,63,224,61,137,222,
  208,66,94,33,233,237,173,207,174,104,23,186,
  205,43,165,215,149,207,235,170,225,155,249,212,
  208,180,1,201,240,68,200,190,160,250,106,233,
  77,201,6,169,171,110,200,195,253,116,175,161,
  145,224,61,217,161,167,239,32,141,192,187,205,
  8,99,160,16,228,104,119,54,93,0,137,252,
  202,24,228,74,251,74,178,5,5,189,80,242,
  174,168,50,75,245,190,196,40,42,229,176,244,
  26,42,124,254,92,242,222,247,63,114,228,12,
  254,30,27,9,228,44,238,180,232,69,180,164,
  227,198,59,226,54,158,16,34,227,180,25,165,
  152,49,38,17,194,21,235,238,27,211,109,17,
  54,21,22,171,25,24,61,156,103,229,50,225,
  62,41,34,35,2,29,60,199,17,21,7,29,
  223,231,0,27,225,229,42,8,236,19,38,19,
  20,124,216,63,42,5,242,245,249,198,73,204,
  195,34,243,234,170,242,19,48,255,36,229,105,
  176,52,92,206,85,48,50,36,219,127,33,9,
  96,244,86,64,73,245,99,69,44,81,24,27,
  70,109,88,99,53,246,187,69,23,246,28,192,
  252,94,250,59,207,107,69,32,23,193,16,213,
  60,7,89,98,202,95,254,248,222,81,6,68,
  42,253,191,115,78,223,243,59,0,201,16,184,
  211,204,38,232,9,240,254,52,13,49,243,212,
  243,232,10,231,14,225,218,173,228,40,9,241,
  10,236,235,52,12,200,251,233,129,245,61,247,
  185,219,226,244,224,16,218,189,11,233,56,14,
  33,154,248,223,0,33,235,229,40,6,215,57,
  243,233,245,198,166,0,70,36,208,212,40,2,
  39,14,215,220,17,38,18,62,225,191,27,173,
  43,219,234,235,29,235,228,29,42,188,205,200,
  129,233,45,30,201,173,231,6,219,251,195,216,
  245,31,62,53,30,228,252,142,246,3,249,31,
  71,222,16,254,13,168,220,194,167,248,50,47,
  244,213,254,25,3,236,178,251,15,46,10,25,
  244,186,31,173,243,41,232,13,67,176,158,211,
  69,39,83,19,25,191,8,91,5,251,206,43,
  83,8,213,127,227,220,228,212,72,18,206,220,
  74,236,1,77,38,52,229,206,56,91,84,21,
  27,25,247,42,212,42,253,214,42,44,187,17,
  86,221,207,194,69,41,217,50,247,66,45,45,
  8,248,199,4,35,17,220,70,28,24,217,39,
  204,38,77,73,21,206,76,117,225,254,19,9,
  241,202,20,79,16,49,2,43,214,218,27,16,
  246,97,92,78,78,180,13,9,12,89,236,43,
  254,192,28,81,25,249,17,192,65,245,210,251,
  202,222,46,253,234,170,196,12,48,95,84,83,
  76,160,55,96,247,63,71,0,5,234,44,51,
  85,230,246,189,214,249,42,10,35,57,76,53,
  5,37,67,243,27,208,28,51,110,240,75,252,
  107,57,71,229,201,178,113,5,11,39,160,232,
  40,95,93,89,219,72,15,35,240,226,90,234,
  54,30,80,209,45,229,54,53,105,236,95,234,
  240,30,106,102,195,48,225,179,18,24,39,197,
  231,199,4,56,225,230,108,26,10,227,115,253,
  48,237,195,249,125,205,216,65,194,39,127,113,
  165,47,18,170,228,251,113,10,14,219,80,84,
  30,31,221,223,219,29,246,235,86,45,253,38,
  68,45,241,232,2,165,237,212,152,20,56,198,
  58,72,210,184,2,10,240,40,173,234,79,222,
  191,188,239,186,54,97,181,23,17,0,211,232,
  85,42,70,84,1,74,197,22,82,120,94,40,
  19,208,86,206,22,24,92,211,8,56,241,170,
  206,98,40,163,236,183,239,61,230,248,251,2,
  235,22,210,252,211,69,233,42,181,3,203,34,
  243,62,96,227,62,12,246,23,204,76,25,11,
  2,1,237,219,58,244,66,33,165,187,243,51,
  151,17,230,74,31,175,57,234,232,12,127,52,
  82,41,248,232,25,8,247,159,224,240,108,217,
  43,28,61,179,70,219,68,17,224,10,28,220,
  41,193,72,11,68,212,73,228,223,70,175,234,
  12,13,51,209,206,64,108,32,46,230,244,194,
  219,248,21,86,5,3,38,207,251,202,80,79,
  225,100,30,55,49,25,201,40,220,56,50,66,
  9,58,96,233,40,51,240,211,62,22,57,12,
  167,29,36,26,203,218,79,94,87,67,193,101,
  78,82,217,200,30,171,223,7,28,75,97,108,
  12,81,218,0,18,33,234,32,73,174,64,182,
  11,232,216,244,235,73,170,251,44,215,53,56,
  237,199,68,42,20,21,86,51,20,33,2,244,
  13,248,216,27,94,54,50,37,85,49,86,42,
  6,2,0,93,61,242,99,67,85,185,227,12,
  22,26,87,39,47,94,56,228,57,20,208,86,
  74,218,254,45,80,96,83,18,127,200,192,17,
  0,213,72,66,53,208,49,111,214,85,234,96,
  240,6,40,65,92,233,231,59,83,60,4,254,
  34,232,219,118,14,44,161,56,32,221,57,5,
  9,153,58,8,67,63,81,36,198,93,15,15,
  194,191,254,201,230,246,223,14,52,67,63,12,
  247,178,192,97,29,46,22,7,17,239,222,220,
  74,113,216,83,35,236,13,4,188,1,237,26,
  39,254,220,34,69,240,209,252,92,225,220,93,
  60,210,23,10,238,57,224,42,15,0,28,19,
  213,211,31,245,63,34,28,11,12,50,222,226,
  118,35,36,80,58,1,34,21,49,216,86,21,
  86,173,211,189,60,76,62,223,78,39,213,224,
  5,52,63,226,19,97,18,174,101,0,93,74,
  9,214,46,78,116,215,87,89,70,207,12,234,
  254,122,34,11,33,239,101,241,54,232,61,99,
  225,240,83,175,220,242,70,8,214,189,189,116,
  10,247,122,53,6,166,81,12,50,127,103,34,
  82,205,92,123,178,203,58,189,203,63,247,215,
  54,178,81,115,137,222,242,181,196,36,229,192,
  21,28,140,172,208,200,249,198,198,237,218,244,
  183,25,251,7,144,251,73,5,142,162,180,29,
  5,50,232,219,13,53,231,201,68,83,11,226,
  44,71,71,40,226,53,111,200,39,168,198,18,
  253,216,239,49,145,62,174,222,154,28,10,94,
  197,186,253,55,45,25,242,72,50,238,204,186,
  121,10,52,198,35,14,114,211,244,117,179,25,
  33,250,213,239,38,87,17,88,80,57,14,22,
  79,15,15,72,47,242,79,229,105,17,5,37,
  50,96,251,29,53,71,4,102,245,80,198,203,
  146,32,25,28,40,99,2,90,234,127,216,189,
  116,213,202,43,27,246,252,89,243,216,54,34,
  207,119,73,91,253,76,82,89,24,212,80,41,
  24,156,223,225,190,73,249,235,187,232,71,241,
  27,66,200,4,16,39,209,52,190,182,5,147,
  9,216,30,75,56,49,63,65,1,170,251,26,
  153,96,247,43,38,163,226,54,21,240,45,209,
  178,210,210,68,31,213,62,249,30,46,243,20,
  253,53,241,242,73,233,181,177,129,245,31,239,
  228,234,244,52,54,63,207,68,206,222,251,94,
  172,180,71,228,6,247,47,67,67,229,51,86,
  79,201,209,157,155,98,71,9,35,181,26,56,
  23,48,224,211,3,244,212,5,213,24,242,199,
  53,22,70,41,244,206,83,55,70,206,156,11,
  202,33,201,15,198,180,22,38,27,236,236,203,
  39,213,80,78,184,20,250,198,55,205,40,234,
  84,209,46,47,0,42,15,253,146,43,26,27,
  36,251,254,44,41,38,53,226,53,246,39,31,
  169,220,249,4,67,183,55,79,63,181,216,3,
  241,208,8,40,166,67,47,188,22,4,97,43,
  204,46,65,248,188,188,49,213,195,35,6,33,
  57,47,31,32,0,2,244,0,84,228,154,177,
  232,251,43,171,223,37,86,208,243,0,231,78,
  189,223,211,218,18,64,229,149,217,196,69,111,
  37,216,40,127,95,179,140,192,164,238,26,156,
  225,232,101,11,216,220,219,23,173,5,200,30,
  8,231,235,252,247,195,77,63,74,1,193,41,
  12,137,135,214,192,22,74,195,58,242,80,24,
  20,233,213,255,255,217,64,234,211,197,240,170,
  207,223,106,30,17,170,129,59,35,3,109,237,
  86,166,4,248,47,104,180,237,240,183,29,96,
  254,220,212,46,70,241,60,209,10,218,247,24,
  206,198,140,10,93,254,26,23,243,241,173,11,
  27,70,229,238,226,228,73,17,196,190,32,74,
  55,199,2,5,0,223,250,33,226,171,163,222,
  38,90,52,94,97,149,38,221,43,57,198,251,
  230,8,240,237,59,247,246,240,216,1,189,78,
  9,56,60,183,208,22,131,69,17,253,46,255,
  21,164,23,218,81,21,26,244,7,178,79,247,
  255,141,241,75,1,19,15,42,44,18,85,34,
  48,181,164,43,33,235,237,236,229,236,253,0,
  53,32,180,69,41,217,71,49,63,167,43,251,
  76,235,12,197,77,3,46,230,113,245,6,38,
  191,54,233,220,52,22,2,61,234,56,13,56,
  193,70,226,18,233,187,63,242,233,220,49,66,
  226,55,27,11,10,246,18,65,0,46,21,25,
  217,246,71,87,215,12,178,5,252,46,21,247,
  83,37,246,212,246,224,235,202,229,7,187,249,
  85,18,206,234,43,180,20,21,247,22,99,219,
  94,183,240,224,231,15,39,246,59,27,202,1,
  75,253,92,52,58,213,3,20,127,16,47,22,
  243,208,242,35,45,42,109,89,45,247,6,254,
  39,63,68,192,35,229,71,26,47,73,12,211,
  18,78,220,228,112,43,252,231,182,191,189,223,
  52,75,4,2,88,187,36,26,54,83,90,198,
  231,182,221,184,1,71,227,28,231,73,238,60,
  198,0,213,223,84,83,5,44,94,237,225,207,
  240,67,43,17,22,239,36,81,215,172,185,236,
  242,9,210,48,62,243,74,63,218,49,212,19,
  237,7,52,228,47,222,217,58,30,48,26,64,
  250,204,221,10,232,60,189,74,3,41,45,99,
  207,222,223,37,54,40,255,27,32,73,57,97,
  51,217,240,9,24,76,231,94,96,201,107,60,
  59,16,241,192,249,83,251,21,240,85,1,241,
  46,244,6,223,90,93,13,47,249,49,222,19,
  221,78,220,42,244,34,73,127,50,243,7,40,
  207,44,38,46,45,48,224,214,21,238,223,21,
  85,96,249,56,113,213,49,255,25,4,60,66,
  28,169,94,84,9,193,47,53,63,72,51,17,
  246,60,228,16,218,23,230,209,243,208,69,243,
  224,162,67,76,228,8,249,3,42,49,144,147,
  193,64,3,228,0,129,211,196,215,65,15,228,
  35,13,254,24,207,212,18,43,196,147,12,240,
  202,60,17,232,6,53,141,149,252,25,80,3,
  235,139,223,12,215,53,8,253,217,65,1,185,
  223,18,19,226,186,153,45,51,220,43,203,243,
  216,8,138,153,221,14,59,243,5,134,254,185,
  246,77,225,23,67,77,211,22,233,240,14,11,
  218,218,254,246,190,233,234,7,218,35,179,236,
  243,107,237,41,29,136,230,239,229,35,195,205,
  33,93,218,226,23,231,253,248,207,202,68,25,
  179,238,243,217,41,33,163,241,196,99,231,44,
  44,201,185,214,253,63,192,28,13,219,1,240,
  63,47,18,11,21,250,33,187,238,84,234,52,
  47,218,182,23,2,227,21,55,254,40,41,235,
  66,244,221,60,85,54,228,66,110,21,43,233,
  95,26,28,187,188,9,20,75,76,46,204,65,
  49,208,29,213,214,238,5,17,29,32,51,76,
  211,50,46,0,243,15,49,191,19,32,75,27,
  31,84,82,1,62,252,37,225,205,161,72,228,
  8,227,49,4,55,149,51,0,248,248,24,66,
  63,11,45,224,232,91,19,199,11,45,3,5,
  51,72,218,6,21,174,61,242,9,228,201,32,
  9,250,207,45,218,18,40,50,62,213,220,251,
  8,210,32,43,200,84,102,22,45,24,194,44,
  14,209,222,36,158,61,81,188,246,9,45,127,
  186,39,13,199,32,123,78,244,39,69,25,28,
  93,241,199,31,68,246,83,66,63,43,213,197,
  10,239,116,90,220,56,55,253,62,63,253,210,
  99,94,222,53,223,104,178,223,211,213,64,185,
  234,27,83,28,245,239,176,3,44,123,114,191,
  13,53,73,195,163,48,70,250,251,211,186,249,
  56,76,200,135,107,227,192,15,45,98,67,208,
  254,9,37,236,193,222,237,222,27,222,155,216,
  254,101,18,19,227,7,17,197,45,104,171,140,
  59,33,92,18,216,43,101,38,14,209,8,201,
  199,98,81,25,192,240,22,2,2,7,251,6,
  216,43,55,187,68,127,251,198,85,238,91,172,
  174,31,122,77,32,187,43,12,150,70,105,101,
  85,32,74,96,204,68,240,64,103,81,70,82,
  73,84,29,6,247,105,34,89,254,229,218,1,
  60,2,169,236,16,91,36,35,12,184,194,57,
  186,22,51,68,23,41,93,19,16,94,204,224,
  70,71,80,70,63,191,25,96,0,189,10,67,
  1,67,6,17,61,188,37,123,7,64,44,216,
  252,207,1,23,11,227,216,83,238,23,116,92,
  10,248,17,94,219,246,237,72,87,104,105,24,
  252,196,4,101,194,249,188,221,127,3,23,20,
  2,53,196,215,87,73,9,38,53,12,250,235,
  28,250,9,254,91,220,235,55,224,40,10,104,
  223,221,245,43,84,74,247,60,114,215,181,66,
  27,99,250,64,211,191,206,85,14,46,25,255,
  79,100,60,207,182,44,228,19,250,67,109,217,
  71,165,172,193,248,251,2,188,13,35,59,31,
  252,226,232,229,255,3,84,71,187,237,35,241,
  34,231,104,238,92,243,127,8,232,200,8,254,
  13,48,11,254,204,193,33,254,38,102,153,201,
  23,57,36,50,172,200,215,34,31,184,33,81,
  215,42,15,204,238,45,53,34,241,16,204,238,
  217,212,60,171,211,13,221,251,19,82,233,87,
  50,243,29,28,205,224,50,20,59,253,248,69,
  209,34,64,246,74,32,209,32,212,228,24,228,
  75,239,255,45,41,248,122,20,236,173,196,64,
  66,229,3,97,10,110,209,209,59,83,252,53,
  246,215,14,100,233,24,25,229,214,68,154,29,
  252,10,32,240,0,186,222,243,210,94,9,21,
  219,28,204,54,54,65,234,49,41,219,66,206,
  53,90,35,31,63,15,67,99,211,214,229,220,
  47,208,253,193,102,183,10,21,27,1,42,244,
  114,197,88,35,81,212,15,234,200,31,45,248,
  81,39,214,71,41,237,43,233,45,34,194,186,
  70,167,64,109,77,8,253,86,57,49,42,229,
  209,3,223,182,28,90,40,60,252,64,221,232,
  1,177,13,46,225,212,46,220,18,226,78,112,
  232,201,170,19,55,64,57,65,19,52,221,186,
  252,127,13,90,245,230,197,14,24,246,235,83,
  231,14,246,201,243,222,74,97,68,250,254,32,
  82,203,62,57,216,227,10,229,70,231,85,25,
  77,190,27,96,16,181,255,23,3,71,72,229,
  104,198,62,87,18,204,57,255,224,34,185,40,
  244,127,221,248,246,0,70,41,242,180,91,73,
  244,65,217,223,44,9,67,101,182,252,21,218,
  1,253,38,225,83,1,223,2,226,84,18,178,
  15,234,49,218,229,215,227,75,251,191,60,4,
  210,224,73,7,189,55,49,88,8,17,97,188,
  10,0,60,35,220,114,28,12,234,56,19,197,
  224,25,248,15,47,195,223,231,239,32,231,23,
  28,4,237,206,252,161,92,63,23,66,4,6,
  217,108,173,184,39,231,227,36,183,193,85,208,
  75,40,168,249,246,75,25,244,217,22,18,201,
  191,28,52,203,236,61,235,235,64,78,46,212,
  41,11,15,239,30,154,32,87,34,168,222,199,
  191,229,253,35,27,255,253,16,217,31,8,192,
  129,245,136,246,243,33,1,239,238,149,243,187,
  156,34,238,0,23,26,180,214,23,254,30,61,
  180,220,212,214,36,12,37,229,172,250,163,205,
  200,56,35,236,58,158,198,180,192,45,250,197,
  234,214,34,139,205,26,20,8,197,252,208,168,
  34,234,16,205,187,23,134,221,198,49,42,42,
  229,182,155,247,221,18,251,241,58,204,220,146,
  247,2,37,6,5,17,205,172,238,220,62,214,
  170,199,190,248,236,64,28,37,9,159,207,229,
  179,218,17,248,7,30,253,155,38,32,34,18,
  203,40,237,169,48,15,234,224,144,249,169,26,
  208,51,231,7,234,227,210,252,200,10,11,222,
  61,18,27,7,26,21,51,252,6,220,226,236,
  84,108,255,57,235,227,79,2,12,172,248,24,
  207,34,63,21,219,25,69,73,17,212,72,239,
  186,208,208,25,16,169,240,222,178,97,236,235,
  242,66,234,77,249,190,52,10,47,127,250,209,
  116,211,77,206,181,198,208,64,254,85,246,249,
  239,193,86,46,5,234,166,4,110,74,32,189,
  182,66,182,38,8,20,77,24,21,63,184,62,
  18,97,50,76,52,96,0,27,101,245,214,6,
  249,6,35,73,254,255,39,16,72,39,8,38,
  192,55,255,68,103,93,0,70,190,82,197,65,
  97,252,195,160,25,252,76,125,89,43,216,76,
  232,218,3,204,105,234,207,193,58,28,3,244,
  22,199,71,65,193,17,52,28,39,56,12,40,
  49,63,223,232,28,31,25,184,191,212,167,0,
  216,9,54,217,230,164,181,22,183,7,225,4,
  233,22,233,195,239,1,46,35,212,251,254,246,
  38,228,20,156,176,208,208,245,242,43,251,235,
  26,209,150,208,195,63,16,210,63,229,241,233,
  31,0,33,44,227,225,7,29,251,227,223,154,
  179,232,192,253,208,51,38,215,254,178,164,214,
  154,241,222,24,35,35,7,180,34,0,32,231,
  193,11,13,226,13,27,255,210,211,19,164,199,
  4,47,46,223,244,143,168,238,171,39,30,242,
  254,251,255,184,245,45,42,37,8,229,227,17,
  35,18,3,187,129,216,173,209,3,56,54,35,
  4,151,163,209,191,22,232,228,230,50,194,200,
  30,32,4,225,205,255,28,253,232,196,207,98,
  38,47,230,248,221,173,64,69,190,57,127,38,
  51,37,0,28,5,240,73,222,84,234,58,51,
  78,197,23,55,52,27,189,18,115,68,224,68,
  249,56,33,24,35,85,21,104,241,66,11,106,
  253,211,60,50,228,218,208,10,101,55,230,22,
  44,51,27,68,0,4,230,74,14,222,228,239,
  241,1,244,60,249,62,72,64,229,177,65,29,
  28,240,63,174,45,40,58,50,113,200,18,22,
  105,3,73,252,199,229,49,214,44,62,40,72,
  14,255,44,36,190,213,208,236,223,208,195,3,
  63,227,74,82,51,4,40,9,38,0,239,248,
  208,16,27,208,202,34,55,90,96,61,23,229,
  33,18,252,28,255,253,47,190,90,252,32,249,
  248,6,204,95,237,194,248,219,232,35,112,190,
  194,234,233,108,39,227,89,235,183,0,209,77,
  156,69,250,228,184,212,39,105,90,232,67,104,
  39,52,171,41,233,82,236,250,69,26,235,254,
  69,250,23,11,202,254,52,97,4,251,225,50,
  245,198,81,44,47,200,201,115,71,155,22,206,
  222,21,93,16,164,26,254,16,82,32,39,5,
  198,34,66,0,149,196,240,208,86,200,192,125,
  34,194,64,235,6,16,41,240,160,55,115,129,
  230,215,18,207,105,227,192,255,227,213,227,45,
  142,194,91,221,48,232,200,226,200,69,43,33,
  67,241,21,47,77,57,215,183,17,155,78,98,
  45,43,78,28,226,206,63,42,34,216,73,55,
  66,165,236,252,232,83,193,44,19,227,33,178,
  77,186,253,21,55,234,227,41,243,40,208,255,
  202,249,3,54,200,73,61,26,15,252,18,250,
  85,4,208,247,252,24,212,238,189,213,27,39,
  245,187,6,231,81,41,179,229,200,65,211,242,
  231,86,254,2,232,35,206,215,51,53,207,182,
  223,3,61,74,73,12,253,243,198,108,242,57,
  54,203,48,19,246,1,6,19,38,246,54,5,
  193,236,190,7,253,127,58,177,69,4,49,26,
  250,40,80,52,64,21,24,9,26,57,222,19,
  4,15,79,98,19,10,230,250,3,28,246,46,
  5,230,14,207,9,1,8,54,84,10,228,99,
  232,248,221,209,50,17,255,206,32,11,217,248,
  31,229,54,206,51,103,14,209,53,35,183,210,
  177,4,45,201,190,234,13,255,180,214,182,240,
  2,51,136,180,240,251,11,254,5,148,178,187,
  248,19,210,203,7,46,0,252,213,244,28,222,
  183,215,254,44,154,207,238,237,250,55,164,165,
  216,2,52,12,244,183,167,220,9,241,251,0,
  17,59,242,246,184,228,20,222,219,223,49,243,
  208,239,250,10,242,9,157,203,17,64,47,230,
  36,204,206,233,222,48,254,23,22,16,242,221,
  179,221,23,218,183,233,38,247,203,31,238,234,
  221,57,129,207,237,35,50,34,243,152,191,217,
  9,55,0,11,26,60,214,225,171,9,250,236,
  221,170,47,59,190,5,225,233,35,46,159,226,
  231,251,17,37,249,159,187,215,236,15,232,247,
  40,20,251,80,7,15,233,242,75,58,211,241,
  92,246,215,222,70,69,253,218,253,250,8,242,
  166,60,78,94,201,13,209,52,20,90,38,202,
  56,42,32,59,8,76,200,232,19,186,18,76,
  6,9,81,207,246,76,239,220,33,2,223,239,
  27,235,41,101,38,74,121,48,209,66,254,10,
  9,115,10,2,36,197,0,15,49,17,254,228,
  231,89,223,214,156,244,255,237,56,170,241,21,
  244,96,5,8,53,197,239,25,26,83,19,37,
  80,216,69,190,19,202,55,255,230,10,40,63,
  182,56,67,214,181,185,55,8,0,23,127,227,
  58,73,163,30,253,60,187,237,219,195,248,46,
  65,183,36,217,217,20,15,190,29,104,42,251,
  237,152,3,243,79,72,83,118,94,108,69,36,
  23,77,82,235,57,81,100,194,6,16,193,99,
  19,58,3,184,105,21,1,182,89,231,78,20,
  50,85,168,6,36,30,210,231,79,24,216,223,
  218,76,53,121,17,213,27,51,254,9,154,180,
  17,78,68,238,249,234,40,102,22,106,26,105,
  88,8,40,42,232,198,194,222,74,221,98,95,
  73,235,27,219,177,236,177,54,161,70,111,155,
  72,32,235,34,174,68,90,2,40,216,103,220,
  79,214,40,44,235,50,98,27,88,176,89,51,
  17,8,247,230,13,202,92,229,91,15,3,20,
  250,209,157,66,87,249,127,192,241,234,39,98,
  27,75,1,209,225,254,25,10,185,20,30,1,
  16,27,247,21,185,252,31,5,220,202,7,192,
  191,82,60,15,192,230,170,52,8,90,35,13,
  11,246,89,243,9,40,159,224,195,103,40,34,
  207,13,71,123,57,74,225,14,178,20,204,52,
  45,69,21,87,85,206,200,11,12,206,110,44,
  180,52,240,222,47,105,4,215,3,24,45,41,
  218,32,241,175,65,62,7,69,69,253,214,194,
  254,206,251,205,80,30,94,43,137,69,201,247,
  52,80,250,254,229,213,47,236,148,51,240,75,
  88,179,17,208,215,193,147,32,63,251,7,235,
  188,197,250,12,129,18,5,11,19,4,19,171,
  12,64,202,228,38,244,244,205,12,223,18,254,
  226,18,154,192,245,102,49,21,40,70,115,112,
  235,227,6,243,38,11,254,14,13,73,53,110,
  204,37,81,106,125,245,206,181,18,67,175,250,
  211,208,251,28,112,60,44,45,129,248,34,55,
  201,221,85,211,191,221,57,19,213,20,65,238,
  41,155,235,156,23,193,247,151,32,181,21,148,
  101,251,62,162,18,185,17,96,151,25,66,245,
  228,159,2,0,47,18,81,31,11,211,58,64,
  191,54,244,2,184,31,42,56,4,34,11,194,
  48,38,86,223,159,0,75,172,9,51,223,20,
  163,78,217,96,41,60,242,239,253,255,216,32,
  21,177,108,208,212,16,51,189,236,5,54,72,
  37,27,251,204,192,246,14,215,247,57,93,41,
  62,12,205,34,3,75,190,98,223,213,244,28,
  62,104,175,168,68,69,38,17,68,7,6,244,
  204,52,207,85,199,144,7,194,247,225,192,18,
  95,88,129,217,50,4,14,46,198,212,253,74,
  102,231,137,237,216,68,2,55,31,219,220,186,
  187,153,34,248,49,234,204,44,85,239,227,254,
  53,31,42,190,229,142,239,76,225,43,134,23,
  34,102,87,92,223,3,197,10,184,194,89,79,
  1,20,242,254,38,91,252,213,74,7,7,20,
  254,150,242,61,67,7,160,201,172,88,83,5,
  243,228,226,210,155,216,91,252,200,33,41,250,
  100,63,15,46,58,213,247,6,196,189,53,9,
  222,19,161,2,194,47,94,29,193,56,46,194,
  212,224,252,212,46,83,232,55,108,111,224,199,
  75,199,63,194,171,224,46,16,19,56,185,46,
  243,100,242,92,178,252,75,2,254,120,255,255,
  4,0,0,0,0,1,0,0,49,1,0,0,
  212,0,0,0,158,252,255,255,206,253,255,255,
  231,252,255,255,12,1,0,0,245,254,255,255,
  151,0,0,0,235,0,0,0,167,0,0,0,
  206,250,255,255,233,1,0,0,102,3,0,0,
  22,2,0,0,220,0,0,0,63,0,0,0,
  79,2,0,0,102,0,0,0,192,251,255,255,
  143,1,0,0,37,0,0,0,211,1,0,0,
  17,251,255,255,159,255,255,255,180,255,255,255,
  248,255,255,255,110,255,255,255,171,5,0,0,
  246,0,0,0,193,0,0,0,211,254,255,255,
  162,255,255,255,168,250,255,255,84,2,0,0,
  206,1,0,0,238,253,255,255,195,252,255,255,
  163,5,0,0,190,0,0,0,237,249,255,255,
  50,0,0,0,100,0,0,0,6,2,0,0,
  244,7,0,0,30,0,0,0,107,0,0,0,
  137,255,255,255,28,252,255,255,141,0,0,0,
  188,252,255,255,49,0,0,0,191,252,255,255,
  184,2,0,0,47,255,255,255,139,2,0,0,
  43,2,0,0,147,252,255,255,51,3,0,0,
  93,1,0,0,57,252,255,255,57,255,255,255,
  4,253,255,255,209,252,255,255,226,254,255,255,
  10,122,255,255,4,0,0,0,0,96,0,0,
  243,33,208,236,177,25,7,233,65,206,189,197,
  76,46,209,56,214,51,242,31,39,38,1,209,
  204,20,29,55,208,43,240,222,190,148,53,177,
  1,8,67,204,3,2,90,24,6,187,3,255,
  251,171,66,175,24,37,176,238,194,17,168,184,
  212,31,196,165,9,210,198,204,229,195,31,46,
  5,48,190,13,35,246,235,30,193,34,129,4,
  61,6,176,25,253,1,9,13,2,4,252,197,
  195,245,23,12,31,24,51,26,33,188,38,22,
  239,211,254,226,47,232,6,193,199,221,215,30,
  248,238,135,225,240,14,18,232,236,17,154,189,
  232,233,14,236,67,240,171,190,53,42,222,40,
  8,19,138,16,42,33,169,17,237,253,185,35,
  25,64,36,202,228,189,56,236,208,21,13,237,
  235,37,21,252,238,224,66,228,45,221,22,197,
  234,238,197,70,237,217,230,12,209,28,168,178,
  65,60,245,242,56,46,93,70,67,103,18,187,
  233,246,73,84,234,72,141,167,215,244,150,202,
  239,164,217,19,218,74,189,158,45,42,203,157,
  52,44,75,22,109,22,38,200,184,174,62,41,
  24,32,33,73,222,40,153,9,23,48,214,11,
  54,249,79,55,40,244,243,103,211,63,55,105,
  3,214,168,18,110,97,74,49,214,109,170,185,
  255,226,1,84,32,187,46,167,25,255,81,158,
  223,43,112,20,28,99,3,168,83,83,255,97,
  36,129,44,246,212,31,102,72,21,83,143,17,
  228,73,133,38,14,246,77,53,42,10,79,97,
  210,72,40,88,205,47,46,156,116,241,12,24,
  48,77,225,78,251,43,138,193,99,75,204,211,
  33,185,65,209,164,208,38,205,226,240,22,194,
  35,67,119,242,68,235,221,78,46,239,73,250,
  64,7,228,19,238,57,202,206,103,164,80,147,
  201,50,245,15,253,208,4,202,9,33,47,194,
  253,20,23,10,21,184,239,15,242,204,249,94,
  41,64,202,76,242,43,250,6,46,74,231,62,
  49,1,219,49,214,36,231,40,63,198,188,78,
  65,124,226,14,23,29,226,22,19,49,207,4,
  226,214,225,39,252,10,89,210,67,17,22,52,
  207,213,246,190,221,28,222,19,48,183,228,77,
  2,250,230,249,21,61,28,233,185,65,61,53,
  86,34,6,240,8,7,41,92,186,231,216,211,
  30,27,253,246,207,127,237,249,93,202,70,177,
  246,52,86,82,28,5,82,93,8,201,2,81,
  242,16,210,51,253,92,211,41,1,229,43,2,
  18,5,81,244,13,207,43,3,4,70,70,73,
  45,25,209,33,1,59,58,16,8,22,20,216,
  198,58,237,2,34,235,172,67,63,44,29,90,
  76,34,73,32,245,216,87,242,201,244,242,10,
  221,216,234,216,234,4,34,198,42,190,231,211,
  56,199,236,218,15,8,1,254,244,48,236,36,
  5,155,240,212,255,199,251,233,186,5,248,192,
  60,18,47,210,244,21,251,33,216,35,226,19,
  223,214,236,242,84,0,78,57,40,43,33,0,
  18,249,224,242,208,195,212,191,194,169,45,204,
  235,167,11,63,55,32,235,214,106,230,233,19,
  184,229,228,15,229,233,212,219,8,36,14,242,
  230,53,237,206,244,18,28,191,7,30,4,75,
  210,218,221,247,170,38,62,194,121,255,102,7,
  0,245,223,216,8,253,222,23,206,208,16,19,
  204,195,30,246,230,250,174,17,28,246,22,31,
  49,227,195,186,19,209,232,225,212,202,32,247,
  202,199,248,6,240,52,210,196,0,35,225,222,
  79,86,35,240,25,8,197,208,253,236,255,253,
  127,54,88,241,8,254,9,211,4,212,22,249,
  3,5,182,176,26,242,253,6,194,238,0,245,
  197,247,206,208,67,13,226,7,47,218,248,5,
  214,62,229,11,242,211,24,5,57,127,196,26,
  232,223,170,65,224,211,227,34,204,93,212,33,
  23,27,227,19,75,203,25,220,205,220,48,242,
  178,230,229,56,204,39,201,2,245,200,2,253,
  198,52,236,6,246,19,195,20,53,238,233,56,
  37,232,184,26,7,252,11,37,17,218,13,22,
  242,21,196,42,214,6,162,9,3,176,156,79,
  252,78,223,235,219,62,204,228,235,179,28,228,
  219,252,105,30,220,18,3,242,243,3,211,216,
  49,234,245,13,241,242,34,228,215,4,218,206,
  4,204,4,56,50,212,39,224,230,49,47,63,
  237,224,220,213,12,78,252,49,246,49,182,65,
  254,159,255,70,46,50,225,57,37,5,198,68,
  42,14,31,205,36,66,64,11,224,3,175,49,
  5,223,90,224,17,252,34,19,28,85,65,242,
  188,200,72,58,1,1,5,195,45,219,245,237,
  229,224,33,185,26,2,233,80,90,214,54,225,
  93,204,195,56,239,236,5,63,34,209,19,10,
  59,34,38,52,192,52,245,221,86,68,58,64,
  204,191,254,5,188,2,77,56,50,213,73,246,
  200,85,194,26,189,207,211,209,223,194,9,51,
  46,14,244,83,62,227,211,200,58,6,31,18,
  245,14,222,203,63,35,61,95,73,66,135,46,
  58,184,248,33,1,251,244,246,69,186,7,55,
  92,192,242,227,42,5,82,0,241,244,67,203,
  20,61,11,62,15,78,80,170,252,179,40,32,
  6,4,29,57,216,201,208,239,27,14,214,75,
  63,222,253,251,212,87,198,230,85,157,205,74,
  251,38,129,248,36,214,52,234,190,120,63,76,
  198,14,87,183,213,252,80,221,41,34,32,94,
  4,195,25,179,65,21,244,211,51,30,84,208,
  241,221,221,59,250,66,104,51,253,203,243,1,
  78,21,37,218,221,38,252,248,106,216,220,101,
  42,208,86,37,201,244,27,17,44,58,201,66,
  251,218,4,83,29,42,206,240,49,230,193,86,
  79,64,63,245,247,183,33,240,80,207,190,0,
  48,247,30,40,193,3,44,252,214,252,10,89,
  35,185,108,24,46,198,255,34,188,81,43,51,
  2,3,167,86,217,11,230,233,17,225,26,1,
  213,65,16,79,208,47,66,33,226,55,2,34,
  216,178,234,98,55,7,32,21,68,192,53,205,
  104,58,243,34,196,64,127,221,66,167,249,206,
  221,62,96,25,217,222,6,23,221,3,42,32,
  205,18,60,18,100,34,202,43,27,168,57,84,
  41,235,46,16,243,46,20,84,55,206,204,239,
  252,186,255,253,76,251,233,53,238,94,72,73,
  212,56,254,223,75,35,189,218,8,188,229,83,
  239,229,235,18,37,255,84,237,17,236,102,38,
  244,42,17,250,250,6,224,127,116,40,229,74,
  78,19,252,73,39,202,156,230,221,18,244,4,
  16,109,231,6,92,245,247,212,233,48,65,73,
  58,105,118,15,7,45,40,228,105,242,17,206,
  30,57,100,234,235,4,195,227,6,24,20,246,
  211,173,241,23,202,56,53,75,234,212,10,76,
  106,70,196,75,77,215,226,11,201,1,217,2,
  43,83,209,237,213,68,229,48,30,60,0,192,
  27,55,39,55,10,51,116,36,229,64,13,58,
  123,9,229,189,19,252,40,75,11,197,52,10,
  2,27,28,53,200,17,15,33,233,79,92,30,
  223,226,64,106,85,113,6,90,230,35,4,54,
  216,220,194,229,228,12,212,56,208,56,252,39,
  40,223,238,17,233,230,118,107,68,2,21,37,
  27,218,74,51,247,1,20,240,239,235,146,10,
  162,251,251,3,225,152,218,85,46,44,167,135,
  197,153,19,16,0,36,178,156,160,136,29,149,
  28,69,0,14,199,144,156,164,234,180,158,228,
  61,79,243,177,239,21,47,172,155,186,228,57,
  143,230,222,76,42,249,244,129,74,12,208,83,
  53,80,65,21,152,192,3,184,0,167,14,151,
  178,134,151,163,21,55,192,134,240,164,154,26,
  202,135,8,23,205,82,36,243,77,172,33,12,
  214,232,72,229,70,38,190,37,226,223,7,229,
  31,151,226,23,182,40,202,40,143,28,194,192,
  219,208,207,135,144,233,163,196,241,219,213,14,
  90,94,147,71,16,185,41,196,36,77,9,161,
  63,251,59,140,239,163,192,73,189,240,241,0,
  248,78,151,19,49,228,17,22,50,225,178,234,
  163,89,229,15,254,1,201,71,61,66,184,247,
  229,204,21,61,49,71,202,230,211,79,230,48,
  248,82,127,242,64,100,46,243,197,249,38,30,
  249,18,250,225,93,53,24,61,243,7,39,193,
  45,238,245,76,84,112,219,31,200,40,71,54,
  87,29,69,48,238,223,217,75,58,16,14,220,
  87,214,102,5,11,5,109,81,255,99,255,51,
  47,235,77,84,28,250,88,217,217,48,197,225,
  219,44,41,241,225,13,22,242,104,8,73,78,
  240,250,36,197,250,213,74,63,255,241,176,220,
  44,50,246,58,211,16,237,222,1,44,225,86,
  95,66,94,30,214,238,88,16,59,12,67,247,
  20,6,80,242,223,34,236,26,225,39,97,193,
  213,89,244,219,216,31,105,219,234,62,74,6,
  36,62,54,105,211,15,67,35,221,6,19,212,
  61,36,21,237,252,211,44,223,250,87,56,84,
  253,245,237,250,247,69,234,5,254,239,118,213,
  248,30,31,217,7,212,8,235,210,30,11,8,
  239,251,21,32,26,208,40,17,245,7,1,8,
  241,218,236,44,24,210,224,4,4,82,254,211,
  224,24,238,6,27,15,215,52,243,245,255,2,
  230,237,213,241,12,231,23,24,235,16,40,247,
  233,231,216,33,250,40,245,205,8,216,18,28,
  27,24,239,239,7,247,27,17,6,246,6,25,
  246,231,229,21,25,36,41,60,20,218,232,235,
  209,127,40,214,23,36,255,239,33,3,15,246,
  19,208,13,27,16,204,26,29,20,224,40,15,
  244,16,4,12,217,227,234,37,242,39,230,11,
  247,234,3,242,27,23,240,13,18,254,217,25,
  5,223,35,23,20,228,196,40,18,214,248,58,
  0,234,209,242,238,66,33,249,241,232,243,33,
  7,213,15,235,246,253,219,209,25,248,240,241,
  33,246,0,236,240,229,5,238,235,233,200,7,
  17,186,127,55,204,241,19,207,211,4,239,192,
  32,197,76,222,195,239,36,25,229,205,209,55,
  29,202,46,203,245,231,4,11,7,236,53,201,
  42,15,60,35,28,11,212,203,14,191,239,41,
  251,75,2,21,25,245,194,234,63,249,2,3,
  11,39,63,66,10,206,69,19,23,44,62,239,
  34,239,202,201,202,1,26,237,222,250,9,51,
  60,224,241,64,36,10,4,26,90,24,228,15,
  247,228,243,234,9,236,204,251,31,44,38,233,
  20,211,74,205,70,26,8,41,222,218,196,19,
  95,21,42,241,227,249,118,203,215,233,92,46,
  195,237,44,10,227,4,34,221,239,32,252,200,
  208,231,202,26,35,15,246,216,253,30,24,50,
  228,34,37,51,7,30,38,251,69,11,206,46,
  18,252,60,33,60,2,224,51,7,111,232,226,
  28,8,202,219,45,21,28,50,231,253,16,216,
  240,15,16,218,126,4,243,254,53,226,93,0,
  204,222,8,2,244,214,72,67,19,50,104,3,
  248,246,35,14,226,76,220,9,89,225,23,62,
  240,242,46,17,239,205,30,202,216,29,49,71,
  247,12,63,4,56,222,56,205,50,219,47,93,
  244,48,238,60,63,3,219,45,50,214,229,231,
  20,233,76,209,226,229,22,15,194,203,54,250,
  63,255,59,233,5,43,249,31,30,18,210,249,
  53,7,245,94,0,254,37,229,175,206,224,211,
  17,76,36,7,46,229,34,26,255,241,6,247,
  230,3,216,66,61,64,58,221,28,45,20,31,
  127,29,23,211,24,18,107,255,4,14,21,72,
  198,252,36,21,255,249,7,205,9,229,62,61,
  195,57,55,52,6,196,23,102,219,215,17,254,
  201,244,213,24,57,74,200,11,25,248,213,240,
  82,53,221,2,210,203,17,17,255,77,228,56,
  199,211,127,222,43,244,191,231,54,48,9,50,
  11,28,13,176,44,65,6,54,6,21,242,71,
  16,49,102,197,52,49,70,68,89,17,251,255,
  14,214,25,7,62,28,236,195,195,73,219,192,
  47,121,46,237,13,18,184,81,214,67,93,81,
  45,70,108,11,237,217,9,59,27,51,243,22,
  22,90,60,54,8,252,237,207,187,58,18,205,
  254,29,92,41,55,7,6,21,17,212,34,35,
  85,1,221,47,231,3,218,212,206,37,249,224,
  38,232,78,203,76,7,213,78,204,17,27,251,
  64,233,245,21,208,41,93,238,29,223,76,28,
  248,38,240,205,30,49,198,191,252,251,245,189,
  33,6,56,213,224,208,14,204,222,232,35,1,
  33,58,216,236,216,72,61,242,14,13,21,6,
  67,204,223,240,19,83,207,18,17,116,215,45,
  227,188,237,200,32,207,47,47,46,51,13,231,
  224,199,38,63,225,54,188,9,11,141,156,217,
  142,53,43,49,198,136,202,65,60,2,133,147,
  204,152,184,56,11,171,197,80,194,38,45,27,
  211,166,129,140,175,217,50,172,165,192,197,189,
  211,141,43,242,27,32,28,136,235,250,54,80,
  166,36,222,211,189,182,43,82,191,76,181,249,
  153,215,35,179,213,23,67,31,98,9,247,68,
  245,35,214,152,225,184,178,244,85,25,36,253,
  245,252,80,197,223,43,66,46,193,104,7,238,
  48,42,190,50,246,18,222,226,84,162,175,208,
  135,61,49,10,26,237,82,95,242,75,222,26,
  66,101,150,232,184,112,75,222,1,20,241,248,
  254,148,136,173,244,2,193,235,172,243,43,239,
  38,28,73,223,239,172,52,69,251,219,145,79,
  27,5,24,254,52,248,2,145,187,13,235,228,
  51,152,166,58,37,195,133,38,28,178,158,76,
  30,244,47,25,24,63,245,193,225,68,32,84,
  17,174,2,237,41,63,7,75,13,45,247,61,
  235,67,225,70,215,51,60,87,12,105,19,78,
  68,13,254,225,17,64,147,236,172,98,7,15,
  42,104,50,105,18,24,236,39,71,61,122,29,
  225,52,119,15,11,177,114,217,73,34,34,57,
  216,1,84,242,243,211,39,253,58,231,26,229,
  253,170,246,245,54,54,66,219,214,15,26,248,
  11,51,195,217,23,254,173,9,215,2,211,67,
  224,221,240,233,199,36,193,86,70,52,66,34,
  22,15,7,218,13,79,51,102,43,5,127,254,
  9,80,27,51,254,233,216,218,11,36,19,1,
  213,230,101,28,36,195,34,60,30,62,205,86,
  9,234,74,95,40,13,172,7,97,178,176,94,
  243,225,1,61,252,253,46,65,70,4,173,250,
  92,208,76,213,31,197,92,51,183,87,125,114,
  46,172,19,232,224,219,215,162,240,237,7,31,
  139,244,252,18,203,190,5,62,82,30,188,144,
  76,201,29,68,100,69,220,28,59,35,33,51,
  66,230,208,180,89,191,205,1,205,56,43,48,
  57,44,239,172,139,16,180,21,1,61,35,179,
  28,207,233,50,235,247,3,179,166,20,138,82,
  236,159,255,198,168,190,56,65,173,142,194,60,
  210,245,239,145,178,252,192,91,168,77,201,200,
  53,228,83,223,36,65,212,30,249,168,78,148,
  245,88,28,240,46,201,66,35,140,185,59,147,
  164,141,194,218,250,16,217,130,51,19,230,73,
  153,149,137,35,183,193,144,68,159,167,203,50,
  129,171,193,5,145,104,176,178,250,45,197,160,
  143,33,179,28,150,3,176,27,63,206,249,98,
  44,24,243,21,221,94,105,79,189,48,154,222,
  35,44,26,242,219,167,88,212,254,202,244,51,
  66,206,223,26,37,16,198,195,58,34,28,224,
  9,68,28,75,138,230,29,248,37,54,21,207,
  11,208,20,32,7,63,30,232,181,5,7,14,
  56,238,93,199,253,8,69,84,70,50,63,47,
  79,204,226,172,224,98,19,2,225,75,232,44,
  27,66,75,178,3,5,27,31,227,44,222,15,
  237,238,24,27,54,9,207,225,220,89,200,247,
  201,67,100,253,55,52,241,186,0,248,237,251,
  8,255,216,40,227,24,247,19,59,36,98,68,
  16,10,118,68,228,5,32,185,10,104,134,59,
  54,21,204,34,76,47,83,238,79,39,235,34,
  8,27,62,209,76,70,61,237,11,88,201,85,
  174,22,41,213,40,236,89,31,214,74,19,235,
  226,34,0,0,183,233,197,58,22,74,233,24,
  45,37,62,90,249,223,21,32,215,199,72,184,
  170,6,129,113,188,21,86,40,106,52,220,148,
  39,7,20,207,243,184,217,12,174,228,23,229,
  2,223,226,175,20,217,64,27,40,217,218,8,
  194,26,48,84,160,37,241,251,244,96,167,211,
  3,176,170,47,222,191,178,47,167,38,180,13,
  245,31,0,211,59,238,94,238,196,191,118,52,
  175,7,20,64,235,195,45,132,10,210,28,251,
  240,179,232,248,179,222,172,227,16,254,66,232,
  11,194,165,234,209,44,56,75,151,250,249,69,
  219,127,236,29,29,26,246,50,186,178,231,231,
  225,126,206,55,183,246,153,228,62,218,74,182,
  0,44,35,60,209,48,218,63,230,233,25,236,
  7,247,213,247,244,230,228,240,166,234,208,12,
  32,211,253,206,38,237,203,24,3,248,41,13,
  7,247,29,19,47,103,7,50,8,191,142,206,
  8,239,161,235,245,68,215,249,246,2,159,247,
  22,200,113,252,247,235,121,213,159,46,178,10,
  186,141,196,164,49,164,218,201,208,43,221,59,
  179,91,1,54,226,79,181,152,207,154,32,12,
  27,181,52,146,167,22,137,8,220,27,207,48,
  201,171,187,157,213,81,3,37,252,200,239,11,
  46,230,9,228,73,182,206,57,185,82,31,150,
  64,88,206,2,218,242,150,0,32,191,205,46,
  86,196,253,176,173,171,178,28,10,45,146,207,
  56,4,144,242,146,235,204,47,51,182,45,212,
  33,226,108,144,64,221,42,7,216,172,15,196,
  110,4,38,52,229,13,137,61,6,240,140,90,
  161,236,81,158,11,210,71,214,250,28,111,62,
  221,196,129,157,209,47,151,70,72,147,233,204,
  134,185,224,3,154,3,135,179,196,32,218,41,
  174,33,60,217,145,240,189,141,138,184,59,70,
  23,5,66,0,89,146,0,10,72,46,251,162,
  28,62,93,52,30,75,13,245,108,57,18,56,
  201,4,37,13,169,58,166,93,224,49,204,180,
  32,208,101,22,42,206,197,206,168,15,79,236,
  223,60,204,67,85,221,236,199,57,28,56,222,
  198,16,57,183,12,248,169,232,58,77,10,157,
  248,19,18,181,231,238,230,75,58,93,206,64,
  253,31,110,42,170,13,109,113,85,83,253,24,
  49,233,202,57,218,242,60,39,251,240,183,71,
  82,183,8,208,242,230,114,165,224,104,197,5,
  254,184,213,194,1,249,17,255,241,39,54,216,
  28,51,36,243,233,61,212,80,201,67,232,238,
  239,246,21,31,191,22,64,57,175,180,91,10,
  80,200,254,255,23,2,247,190,96,60,81,99,
  26,104,60,241,210,40,127,222,199,16,216,218,
  246,35,198,53,27,213,86,80,95,54,200,86,
  102,117,6,58,92,242,23,205,205,117,50,242,
  230,240,35,74,6,73,109,15,184,46,99,8,
  129,206,230,176,239,149,35,81,193,22,252,79,
  50,141,206,159,47,238,68,5,146,182,153,102,
  34,93,211,89,155,27,37,253,168,59,201,174,
  46,54,36,209,6,252,224,213,56,220,76,223,
  32,18,203,167,40,231,68,100,134,45,218,151,
  177,61,99,129,196,7,209,154,96,32,175,137,
  26,225,79,166,217,30,96,29,64,8,137,30,
  143,253,252,200,224,142,155,42,16,31,57,189,
  76,205,132,147,185,6,209,96,23,78,53,8,
  212,202,74,141,5,78,239,236,57,146,31,134,
  233,4,169,222,30,51,231,62,10,174,15,240,
  235,130,37,108,246,216,238,132,148,79,196,170,
  227,140,94,1,177,4,150,51,68,29,61,51,
  131,11,209,94,162,68,215,99,181,20,0,36,
  70,193,236,186,7,216,192,25,251,215,224,217,
  44,166,194,28,222,248,136,207,103,179,3,132,
  46,50,89,218,245,45,207,142,61,33,14,205,
  220,162,13,136,18,17,88,43,2,193,248,30,
  151,45,163,232,10,34,30,15,65,96,142,196,
  9,204,79,171,80,39,171,254,189,170,177,216,
  235,17,212,189,182,3,213,19,215,25,94,31,
  238,200,94,160,190,71,50,235,67,255,3,255,
  58,147,5,194,211,200,30,170,67,215,78,34,
  135,242,53,95,1,215,189,96,235,190,251,145,
  177,173,238,74,2,15,176,74,85,236,65,187,
  148,145,175,51,44,74,104,129,182,21,89,56,
  37,79,209,44,217,205,63,171,185,243,187,155,
  2,143,213,47,228,72,85,236,175,20,202,148,
  92,143,213,239,66,234,161,48,254,227,244,26,
  19,36,13,215,240,200,54,148,205,150,102,215,
  68,253,12,162,229,104,236,194,149,235,59,96,
  30,45,69,1,135,212,77,83,143,233,155,26,
  56,212,129,74,66,245,199,200,224,38,179,255,
  34,223,240,38,168,11,59,249,52,54,39,2,
  37,37,81,1,212,204,190,63,241,219,72,235,
  25,69,73,213,61,1,68,209,0,93,191,0,
  242,134,31,159,205,252,4,52,41,8,33,29,
  243,213,164,230,192,55,254,75,15,22,3,36,
  63,175,7,42,235,40,178,3,159,220,10,39,
  49,37,43,37,252,196,58,61,229,34,16,224,
  241,29,34,109,209,44,191,216,214,33,55,80,
  203,246,198,241,5,173,213,186,44,59,146,65,
  189,11,40,23,238,54,153,13,255,60,226,240,
  0,206,231,200,79,224,185,88,36,84,36,228,
  8,255,35,21,55,64,202,177,3,255,14,31,
  6,224,55,246,3,39,215,19,242,36,61,168,
  7,226,98,80,240,215,14,217,1,206,217,157,
  42,62,206,60,178,21,48,244,232,58,207,186,
  181,243,28,230,223,78,95,205,213,7,4,216,
  208,77,219,166,255,10,138,15,25,29,4,148,
  79,9,110,148,77,136,172,190,238,163,228,61,
  1,129,17,75,171,99,152,237,41,82,214,71,
  229,3,232,49,211,169,94,155,240,74,152,238,
  221,218,84,244,230,38,150,251,232,191,159,39,
  245,146,190,101,188,248,7,151,47,68,54,245,
  163,198,8,173,24,253,190,219,155,151,77,70,
  39,63,204,110,247,162,99,151,185,87,222,39,
  197,38,44,146,141,4,140,255,221,171,143,200,
  40,82,1,7,75,239,211,51,208,139,194,217,
  197,61,243,217,157,65,142,247,64,79,213,44,
  44,177,152,11,80,236,33,87,70,232,154,13,
  152,155,174,140,68,25,133,193,55,254,30,25,
  219,65,192,58,70,13,182,24,250,90,252,164,
  50,139,177,71,139,91,89,163,239,195,193,234,
  15,234,7,221,17,227,17,2,35,230,251,246,
  23,213,204,228,192,204,28,50,43,202,62,51,
  230,216,252,77,33,60,218,49,232,238,198,94,
  241,246,45,9,243,251,207,253,56,50,31,64,
  34,238,51,242,238,56,71,35,232,53,5,37,
  74,87,208,30,53,242,192,244,26,24,253,20,
  232,16,33,210,237,30,7,51,240,228,20,74,
  222,203,85,215,14,50,43,53,217,246,19,53,
  49,189,245,61,61,232,60,13,27,168,11,217,
  247,253,210,55,237,222,224,54,91,35,60,45,
  4,43,223,71,11,23,40,26,80,47,187,20,
  127,32,227,23,240,215,1,212,217,204,253,55,
  203,211,107,63,236,239,98,17,1,1,63,253,
  11,57,1,198,253,214,41,79,63,239,65,55,
  179,9,241,64,63,76,229,6,24,214,231,254,
  58,248,20,248,23,202,244,250,10,54,188,41,
  45,218,85,95,150,22,64,65,0,95,244,49,
  235,247,106,223,8,213,164,221,25,45,164,205,
  201,54,255,234,34,68,193,202,5,13,249,227,
  21,3,49,43,73,124,27,188,76,140,92,17,
  2,235,29,43,32,246,64,29,65,183,242,163,
  253,207,81,229,48,254,51,69,232,232,19,76,
  198,84,30,229,84,212,73,8,193,69,249,32,
  206,30,218,238,215,74,213,3,21,76,239,45,
  224,36,191,152,2,1,64,66,117,85,2,68,
  9,157,229,179,52,211,98,67,29,17,9,97,
  85,209,49,170,28,197,246,213,178,178,91,51,
  38,94,25,212,193,244,255,199,213,203,83,208,
  208,245,198,244,221,44,138,225,62,236,30,255,
  244,188,47,215,200,94,57,165,216,68,227,207,
  8,40,187,4,71,129,55,1,194,82,75,54,
  172,202,21,88,58,34,225,243,67,9,89,5,
  77,201,164,35,220,18,238,66,61,64,208,219,
  235,77,224,237,8,45,233,244,15,72,5,210,
  8,24,212,52,46,4,6,196,199,8,67,216,
  237,83,253,212,195,242,66,39,221,191,247,233,
  58,180,62,208,191,253,149,247,205,46,151,193,
  69,25,167,37,9,32,222,248,19,67,9,234,
  25,42,195,233,27,54,251,4,253,216,9,18,
  224,76,249,21,13,69,176,33,74,15,250,201,
  180,14,255,18,18,48,83,181,230,220,86,251,
  66,148,255,253,40,154,61,242,164,38,7,76,
  189,0,141,244,76,26,203,210,248,22,11,218,
  204,228,59,251,33,53,179,251,239,36,235,64,
  29,21,239,25,68,38,213,248,8,222,218,251,
  22,9,50,146,197,235,57,187,11,226,84,21,
  253,249,115,43,238,177,61,1,253,136,58,18,
  178,220,177,35,193,18,129,26,34,33,176,245,
  20,179,40,0,214,27,73,25,83,28,186,230,
  64,58,1,222,246,19,179,36,31,71,237,15,
  33,78,1,18,36,220,15,4,226,214,235,253,
  67,21,52,232,45,72,58,254,238,142,248,25,
  216,197,13,249,12,243,0,96,225,53,150,29,
  238,179,212,178,65,215,33,23,179,2,4,92,
  55,24,250,4,80,20,225,52,195,232,217,62,
  4,2,210,19,38,62,63,191,102,245,220,184,
  168,214,21,6,236,22,59,163,234,76,101,36,
  254,129,86,34,250,205,90,2,163,73,246,91,
  56,235,209,235,68,171,20,189,73,249,214,4,
  214,225,71,11,7,222,182,233,11,98,248,231,
  1,14,171,31,248,62,172,37,10,0,231,15,
  103,73,48,179,187,62,32,32,25,3,16,235,
  93,6,253,4,44,153,56,45,61,247,8,231,
  200,72,167,46,68,30,149,31,239,209,25,221,
  174,67,179,64,230,14,194,84,132,111,202,77,
  215,140,168,228,32,95,232,30,206,85,106,35,
  228,163,152,242,23,12,148,72,21,6,217,51,
  183,194,255,169,179,88,38,154,172,19,177,151,
  44,237,184,180,98,31,151,107,159,179,154,180,
  33,49,101,161,11,227,152,218,6,213,5,139,
  144,182,151,16,166,177,102,206,32,159,174,158,
  175,18,67,21,37,74,173,179,9,45,71,43,
  144,230,187,86,24,166,207,202,51,67,25,178,
  13,204,168,216,231,25,28,241,213,226,149,157,
  131,233,247,245,156,87,166,25,237,225,243,41,
  97,64,235,203,194,178,191,199,60,182,252,129,
  61,254,99,145,80,55,30,87,40,233,43,28,
  57,195,142,251,37,245,137,206,240,36,60,12,
  196,47,73,21,221,79,83,206,33,169,30,136,
  153,164,41,69,62,154,44,0,136,12,72,172,
  226,178,2,13,120,116,7,112,23,176,247,215,
  85,0,197,96,41,161,233,31,227,229,166,122,
  216,222,85,252,44,188,159,226,197,32,229,187,
  140,193,232,223,15,181,64,221,223,83,34,39,
  220,185,171,106,227,101,155,215,181,46,27,138,
  12,183,224,24,130,223,231,240,191,31,170,253,
  129,144,138,232,77,241,56,245,39,103,235,104,
  242,61,104,58,216,194,70,100,43,87,26,189,
  238,188,222,68,101,24,142,76,141,244,222,198,
  231,16,100,74,54,64,60,29,156,195,101,149,
  235,154,232,8,23,159,243,219,15,29,79,29,
  15,230,191,190,232,244,4,159,37,208,221,248,
  82,101,166,29,101,29,27,205,91,233,137,168,
  153,233,199,184,204,223,186,16,52,60,9,251,
  169,19,45,19,165,177,177,98,213,39,134,221,
  80,218,189,97,35,21,45,139,179,9,152,44,
  236,217,44,206,60,61,235,50,219,230,50,61,
  32,19,33,36,242,213,64,98,225,235,99,252,
  50,49,81,44,41,61,254,63,107,54,3,24,
  29,187,33,35,197,203,204,211,221,23,52,0,
  73,0,203,26,127,33,40,7,75,61,11,91,
  56,67,248,35,250,12,66,18,51,250,38,185,
  51,193,249,77,8,232,26,39,239,190,15,66,
  249,195,49,233,222,254,9,79,36,255,61,17,
  110,228,5,65,30,184,47,99,226,33,255,43,
  224,118,205,10,232,49,192,107,25,252,27,213,
  82,14,42,84,48,54,251,104,42,239,104,60,
  15,234,18,199,194,31,16,215,8,209,31,22,
  41,186,77,10,18,29,52,58,197,59,86,82,
  248,37,65,63,53,202,237,252,79,199,236,56,
  50,54,223,203,199,121,39,44,3,6,217,111,
  101,221,51,195,213,3,109,23,68,9,39,78,
  40,3,108,217,16,16,67,244,194,25,232,195,
  171,206,51,201,17,51,119,5,29,195,11,88,
  35,12,75,237,179,15,57,218,88,206,165,244,
  227,14,169,68,198,198,234,37,210,236,239,231,
  29,5,64,235,67,247,73,138,45,10,151,40,
  55,212,225,231,19,5,254,202,9,80,255,186,
  45,31,103,164,35,172,42,192,211,64,96,57,
  19,168,219,100,218,29,36,35,64,13,189,39,
  107,162,40,101,54,246,8,81,66,232,164,193,
  246,214,27,54,227,83,170,68,71,242,36,219,
  231,218,204,95,30,95,227,4,106,236,65,216,
  232,190,45,94,252,76,245,179,207,218,218,45,
  106,25,20,116,56,187,251,16,219,80,65,64,
  86,6,203,186,127,161,38,234,114,236,215,34,
  216,23,187,56,67,52,2,95,46,65,167,81,
  214,71,252,237,5,6,29,91,22,103,120,114,
  32,38,14,18,72,201,208,244,26,54,39,209,
  233,27,180,70,179,253,73,211,242,64,248,207,
  5,74,68,234,25,87,24,17,11,193,70,127,
  186,245,191,194,244,187,45,87,8,28,182,52,
  82,23,15,33,40,76,223,201,9,36,28,21,
  81,87,144,239,17,27,211,179,247,1,248,27,
  20,17,79,212,66,57,219,16,22,28,228,248,
  33,76,86,246,216,0,3,20,13,23,238,51,
  80,156,39,70,22,15,190,252,167,8,32,19,
  33,6,202,49,193,157,70,205,231,26,188,188,
  28,64,210,74,74,118,131,203,233,17,145,43,
  117,252,37,222,226,7,221,251,68,83,19,227,
  181,53,233,83,86,226,123,225,51,201,5,2,
  9,237,57,234,219,164,25,32,210,238,57,206,
  168,157,119,7,3,50,215,247,74,32,242,198,
  185,6,177,32,21,59,19,100,195,122,242,186,
  83,62,182,208,72,12,199,244,34,59,211,0,
  19,42,40,71,205,235,46,47,13,202,206,251,
  68,71,238,244,184,204,205,198,207,249,16,34,
  202,21,71,236,167,186,24,80,213,43,206,30,
  207,194,81,6,255,241,19,96,199,69,245,225,
  228,75,13,12,65,44,172,28,56,66,223,234,
  17,247,18,8,43,204,143,242,138,17,8,204,
  251,39,214,11,242,238,71,201,186,222,170,243,
  220,0,198,57,142,62,9,165,15,19,62,102,
  208,240,64,60,252,140,240,178,4,250,206,25,
  169,58,56,218,0,76,211,170,196,217,129,84,
  25,48,55,9,204,49,11,29,63,61,210,190,
  223,197,12,214,199,76,200,59,182,192,16,71,
  71,186,188,51,195,8,51,12,215,76,85,251,
  214,33,58,48,85,221,19,198,218,133,88,171,
  226,85,202,15,178,86,215,231,219,37,6,215,
  3,182,210,32,180,234,39,215,122,1,78,227,
  238,91,52,47,8,127,250,80,77,246,25,246,
  210,244,210,222,0,20,5,28,206,7,76,36,
  99,63,77,27,184,85,123,71,235,162,13,253,
  70,240,240,235,17,84,2,86,34,22,172,37,
  104,232,55,208,242,3,236,113,177,222,80,75,
  62,247,55,172,112,225,7,238,134,51,183,178,
  45,245,46,14,232,65,64,172,76,89,32,13,
  64,223,213,53,5,50,84,179,210,62,74,216,
  205,169,120,219,219,14,71,203,232,51,136,87,
  244,61,151,177,60,64,19,240,21,50,100,219,
  218,9,34,20,31,39,67,81,67,242,198,113,
  154,111,225,253,206,57,46,248,94,20,10,157,
  16,243,194,243,35,162,11,242,95,26,234,212,
  43,127,99,73,60,201,237,224,86,15,87,33,
  25,7,208,56,44,7,13,11,71,255,1,188,
  201,74,9,52,61,29,194,192,88,15,66,11,
  238,20,189,207,253,11,123,244,203,33,118,219,
  41,32,99,183,197,0,231,27,224,8,246,97,
  186,52,236,205,215,188,41,38,248,127,232,233,
  44,58,248,21,202,15,7,55,255,251,252,70,
  78,87,221,34,12,67,185,247,82,58,162,241,
  39,16,205,87,1,60,171,198,234,6,62,189,
  12,10,70,237,29,217,74,33,34,5,90,60,
  238,233,242,38,224,57,220,248,249,175,215,235,
  22,69,24,213,203,84,197,32,243,240,176,179,
  213,232,63,207,203,240,162,44,38,236,30,57,
  113,228,174,50,67,17,222,72,38,20,196,251,
  153,208,70,183,210,84,65,187,95,202,20,178,
  237,171,44,84,212,198,20,63,221,216,169,243,
  30,159,228,248,206,15,26,194,52,55,31,209,
  171,39,7,45,197,69,239,31,2,89,201,186,
  6,33,235,234,174,209,32,19,226,22,158,32,
  43,215,231,17,15,67,232,215,44,62,229,34,
  17,57,200,47,53,5,188,194,156,56,78,210,
  181,235,36,161,56,74,11,59,24,206,190,250,
  215,208,2,184,127,61,123,24,211,227,14,228,
  209,177,198,243,47,223,0,219,210,175,253,17,
  250,204,10,71,18,47,0,59,7,234,135,20,
  250,19,142,60,48,227,55,62,60,64,227,215,
  210,64,215,212,43,21,48,184,214,8,248,253,
  208,180,208,186,50,234,8,12,117,233,102,38,
  188,232,222,12,251,139,21,179,7,236,19,74,
  133,58,234,6,54,205,240,21,60,45,203,5,
  50,11,237,216,179,65,150,21,180,24,33,84,
  213,250,193,8,145,35,7,152,210,71,13,179,
  20,32,21,31,4,26,18,249,10,241,17,42,
  124,254,91,222,8,60,53,205,66,139,16,9,
  19,184,205,4,101,68,166,75,203,247,244,131,
  69,103,212,139,15,184,72,44,255,95,63,48,
  103,100,21,234,223,39,187,231,145,192,177,203,
  21,147,173,209,91,188,34,55,98,86,68,39,
  247,175,149,139,156,203,178,210,252,65,34,146,
  72,234,94,11,44,161,46,160,39,220,37,90,
  214,130,144,239,191,34,54,155,243,58,57,142,
  187,207,251,92,27,16,189,255,221,67,138,253,
  99,249,222,11,151,204,135,204,206,250,74,146,
  58,97,170,135,190,140,159,88,149,103,167,17,
  182,20,250,36,129,214,11,45,35,81,3,231,
  136,31,168,206,135,227,140,215,49,46,204,165,
  252,213,86,49,50,238,50,138,68,203,43,239,
  203,31,10,36,52,243,245,134,67,210,100,161,
  38,224,146,75,44,54,235,168,13,252,69,217,
  43,205,80,203,167,199,145,38,184,142,35,30,
  48,66,241,243,1,221,244,243,244,231,42,217,
  27,233,182,39,193,21,9,228,0,221,60,240,
  6,20,28,231,28,17,192,37,254,200,11,9,
  197,66,0,25,16,173,227,48,29,45,22,234,
  11,143,216,167,42,5,181,8,208,11,243,69,
  27,92,230,211,46,42,204,21,248,205,20,47,
  77,42,237,40,230,42,164,19,212,51,253,31,
  22,224,72,12,9,231,247,32,188,241,218,196,
  33,163,1,79,5,72,232,210,190,30,79,246,
  48,232,227,58,226,129,8,8,203,201,253,202,
  236,226,13,4,16,11,244,191,210,10,238,46,
  64,23,203,23,77,201,22,62,64,241,6,35,
  238,44,237,202,63,248,46,224,15,223,235,193,
  220,50,192,226,233,149,239,70,32,73,43,192,
  176,193,28,223,210,41,221,46,224,194,26,241,
  31,46,231,10,200,228,190,48,23,240,247,220,
  224,60,60,222,197,2,80,99,48,91,50,202,
  47,62,0,6,226,62,166,2,41,243,17,5,
  2,13,249,25,34,7,68,17,180,233,34,236,
  27,2,105,16,17,107,94,212,87,173,127,13,
  78,169,101,180,160,22,178,0,204,21,198,201,
  52,15,37,223,233,234,13,249,4,44,81,70,
  42,238,214,171,114,83,239,64,187,11,184,29,
  246,25,249,250,214,14,252,245,20,96,243,249,
  195,249,101,56,31,24,87,206,243,234,88,20,
  45,209,28,11,236,178,5,192,154,17,189,80,
  13,83,224,183,87,55,242,249,19,10,231,39,
  222,94,15,51,96,1,10,225,90,14,226,43,
  10,96,178,38,251,239,20,14,81,213,17,33,
  40,61,74,8,244,190,60,203,252,27,101,210,
  5,82,73,30,54,201,46,195,90,204,99,26,
  10,45,212,54,73,42,137,63,16,29,215,229,
  252,25,20,56,48,10,11,238,170,243,13,191,
  255,17,25,27,35,32,61,10,208,175,15,231,
  184,44,230,224,42,35,201,206,241,29,233,66,
  228,231,45,248,231,49,209,219,19,199,33,45,
  26,65,224,86,43,29,95,193,39,202,57,228,
  202,47,2,62,217,214,85,238,15,8,245,46,
  225,48,246,5,182,255,44,204,56,242,1,254,
  32,184,3,73,196,239,58,58,230,57,203,26,
  86,32,42,253,22,238,248,81,47,216,23,53,
  207,17,210,34,234,28,39,56,61,33,64,198,
  67,27,127,59,212,228,93,5,31,237,20,236,
  248,235,49,39,208,14,242,215,11,15,58,24,
  83,251,25,59,8,220,18,21,232,250,23,77,
  43,11,232,60,96,113,1,6,23,2,192,48,
  14,10,227,18,45,67,243,230,4,68,193,72,
  91,38,57,232,30,251,51,65,53,234,106,64,
  37,54,90,255,22,26,69,56,43,64,174,242,
  159,172,236,250,178,245,160,21,204,182,194,225,
  98,8,172,47,216,144,176,66,55,150,226,229,
  16,42,30,174,143,211,188,218,174,74,0,53,
  150,20,25,72,165,185,168,58,26,207,174,178,
  19,64,144,136,203,170,143,129,149,74,145,178,
  62,136,171,245,83,20,226,28,92,139,12,129,
  143,68,90,43,25,100,251,254,166,94,161,159,
  21,206,59,240,227,159,213,129,191,145,225,27,
  41,24,246,2,8,66,68,78,157,95,174,7,
  198,14,186,217,40,162,38,1,43,166,134,32,
  68,225,137,185,151,99,152,43,229,194,6,83,
  100,12,182,248,235,45,80,77,55,44,38,100,
  144,190,134,33,1,109,173,86,27,138,183,247,
  168,161,35,217,248,247,50,35,165,180,196,22,
  85,22,68,232,8,131,190,146,21,44,236,134,
  225,206,210,248,221,237,225,220,239,153,133,232,
  47,58,255,22,53,209,150,239,8,48,248,53,
  184,13,28,194,73,238,236,185,167,110,203,137,
  250,59,236,192,44,66,14,12,15,197,43,228,
  234,47,29,253,56,43,8,6,58,190,220,11,
  209,215,96,204,68,195,228,240,183,212,90,237,
  227,250,129,236,193,252,96,192,225,208,148,253,
  13,62,214,232,219,47,10,29,69,223,246,199,
  161,106,172,159,67,249,66,215,51,18,226,207,
  0,226,4,52,37,0,248,198,213,176,19,14,
  31,248,26,3,202,190,85,228,17,210,28,47,
  174,206,238,188,9,225,212,49,251,64,76,16,
  8,11,158,255,210,68,246,48,151,37,7,207,
  225,234,202,183,136,114,216,176,21,229,67,224,
  245,83,213,2,181,132,97,243,22,29,52,246,
  57,15,16,7,40,227,235,206,194,254,0,176,
  77,215,32,95,195,96,47,100,90,51,76,185,
  116,77,70,250,214,67,39,71,208,120,16,240,
  64,14,42,239,54,254,73,255,191,143,225,46,
  58,63,127,41,71,100,124,74,27,33,23,228,
  82,254,19,176,136,20,230,72,34,221,241,42,
  54,78,40,211,39,208,50,109,53,245,37,253,
  47,68,7,233,98,15,35,69,10,76,197,48,
  243,93,241,232,240,18,32,228,46,103,252,196,
  219,183,4,217,5,219,11,17,57,15,99,59,
  71,219,0,237,253,27,44,230,196,89,176,102,
  38,54,175,225,101,24,14,216,254,52,247,111,
  22,228,100,59,122,40,19,23,16,42,64,104,
  138,10,189,237,214,74,200,181,241,252,247,221,
  15,248,93,223,47,238,249,208,213,238,62,168,
  238,80,103,198,234,235,99,18,30,211,27,248,
  161,36,26,45,0,0,209,191,59,219,241,233,
  56,217,76,220,31,233,83,226,55,235,19,15,
  205,216,85,242,87,236,43,31,18,10,28,221,
  219,27,233,19,249,73,61,249,48,250,233,117,
  41,235,58,5,170,202,182,2,24,230,11,239,
  14,65,64,34,101,195,57,31,238,179,25,3,
  51,115,48,31,249,37,92,215,115,63,13,201,
  184,202,49,20,177,155,225,10,198,247,127,95,
  237,200,28,53,170,221,238,79,189,237,58,211,
  84,182,164,80,97,195,227,251,155,35,31,52,
  204,210,35,107,232,4,45,17,0,15,88,5,
  64,214,19,127,97,9,252,30,102,9,24,226,
  14,12,226,47,205,4,9,196,9,193,227,71,
  219,228,37,103,242,21,95,224,53,230,216,37,
  67,46,252,26,98,238,225,14,100,237,15,248,
  239,15,157,233,72,14,234,84,62,31,191,93,
  69,20,93,196,239,219,222,115,235,26,229,18,
  252,255,106,14,15,220,226,233,241,21,25,79,
  198,6,6,29,188,64,105,71,30,185,23,64,
  250,4,21,37,211,53,247,73,59,105,8,23,
  97,214,20,61,19,239,244,237,2,75,208,85,
  206,21,213,77,244,51,223,249,28,9,78,108,
  39,52,114,55,211,242,19,45,72,231,203,242,
  55,45,18,37,32,218,14,254,12,219,96,38,
  186,195,19,33,196,207,100,241,16,74,23,40,
  240,91,216,18,34,240,5,87,10,71,247,26,
  23,64,244,227,233,127,206,7,87,222,55,50,
  229,55,53,89,215,18,79,14,208,58,62,251,
  71,231,33,248,201,187,49,79,237,196,9,235,
  46,255,79,62,237,15,101,217,196,75,58,235,
  22,28,55,254,11,54,39,230,71,25,203,254,
  3,255,237,39,206,3,228,226,6,127,181,44,
  65,61,74,219,50,39,116,31,66,58,94,240,
  217,229,31,48,118,18,211,165,164,187,56,249,
  12,254,231,14,17,58,35,52,41,204,216,79,
  239,223,68,98,230,196,217,45,63,219,166,213,
  199,243,221,54,206,15,156,231,241,250,22,19,
  0,52,211,28,88,55,64,47,75,210,15,3,
  178,54,39,55,46,55,50,15,113,74,70,226,
  221,237,35,63,203,31,188,215,4,173,127,255,
  30,187,212,30,192,64,54,53,47,8,229,86,
  81,62,249,223,54,186,28,20,203,227,185,86,
  6,76,56,79,68,58,208,122,61,191,106,178,
  74,5,82,26,35,54,229,72,225,251,215,38,
  81,218,198,11,15,56,219,81,53,71,59,2,
  243,19,87,4,6,72,44,235,44,69,98,88,
  80,30,207,101,57,61,65,107,46,22,227,73,
  54,192,233,197,66,52,238,49,15,46,8,64,
  24,6,84,198,221,210,41,80,242,253,213,63,
  229,41,125,36,29,217,211,20,253,43,250,70,
  193,233,31,11,26,248,232,20,178,25,230,208,
  250,248,17,206,55,16,3,234,247,89,205,185,
  78,192,63,239,243,224,211,197,255,21,58,177,
  182,22,244,19,80,242,71,197,56,44,20,34,
  10,36,33,37,14,202,102,2,234,69,6,254,
  12,212,221,244,68,48,228,249,236,23,5,234,
  246,218,82,19,253,40,92,237,90,44,84,249,
  238,243,236,166,97,17,230,105,246,5,197,205,
  228,3,239,184,239,22,24,96,241,214,214,75,
  82,4,92,5,255,2,99,89,26,64,108,241,
  26,50,32,50,23,17,181,54,62,73,216,16,
  216,8,236,44,213,221,20,8,36,248,64,11,
  92,18,214,100,208,21,250,251,70,230,194,233,
  99,239,182,248,214,99,37,249,15,127,250,37,
  204,50,60,227,240,82,34,219,192,240,68,37,
  237,246,149,54,205,51,64,32,10,182,219,42,
  22,253,208,36,239,198,228,178,51,243,36,51,
  248,57,166,30,255,15,186,129,141,201,16,213,
  199,71,222,211,179,6,40,90,252,129,16,41,
  57,177,223,188,89,4,13,234,178,3,171,10,
  3,174,30,240,206,8,18,36,13,235,194,251,
  245,18,171,16,112,250,198,164,180,169,19,246,
  45,6,188,14,240,240,5,84,201,51,236,32,
  173,23,203,233,160,102,182,214,18,179,192,83,
  35,211,245,50,70,221,71,251,228,219,116,25,
  171,241,161,43,40,222,138,39,178,217,175,191,
  34,70,41,51,43,243,141,1,17,88,240,217,
  169,172,55,62,65,29,13,180,189,2,19,38,
  93,39,60,240,252,201,84,160,144,97,14,180,
  143,176,254,2,226,157,58,26,231,227,198,255,
  57,247,103,59,165,241,200,12,73,48,241,26,
  254,2,175,14,202,27,1,253,32,239,246,188,
  230,55,81,226,26,63,141,207,69,23,138,251,
  218,14,30,51,232,31,3,142,211,4,30,169,
  194,39,33,237,218,17,54,10,47,209,64,224,
  64,190,244,197,226,189,173,31,43,244,168,202,
  61,143,237,13,73,188,250,24,172,225,16,253,
  228,229,155,7,197,17,3,226,37,34,220,255,
  249,46,154,222,40,62,209,75,49,220,190,138,
  245,240,251,163,37,68,75,11,232,241,252,241,
  54,176,22,215,54,18,59,225,187,254,245,219,
  41,251,233,135,3,9,231,244,40,188,192,14,
  154,241,245,72,224,3,250,190,225,231,66,56,
  69,224,191,211,236,46,208,244,41,63,0,42,
  37,54,218,239,175,81,42,129,29,23,254,202,
  20,36,82,15,221,139,25,3,61,171,25,220,
  31,50,186,235,230,34,164,224,42,12,236,3,
  182,20,54,6,31,191,196,181,217,221,17,38,
  225,217,229,178,40,227,11,129,165,235,242,175,
  230,202,45,244,16,194,49,3,53,21,7,34,
  16,25,190,219,21,21,187,244,162,88,246,233,
  135,3,187,2,254,225,46,49,47,52,81,12,
  230,0,39,214,210,239,243,25,226,192,203,226,
  234,217,255,20,244,243,220,192,59,5,250,206,
  196,25,17,218,245,155,50,1,198,189,255,8,
  245,73,225,250,7,234,231,203,220,255,205,57,
  178,87,238,215,141,18,0,246,45,203,74,25,
  26,10,89,215,229,252,214,197,206,3,12,32,
  224,224,213,235,241,132,15,60,243,16,34,143,
  245,3,37,153,208,11,55,204,244,179,52,10,
  252,153,219,29,42,54,205,235,38,238,182,234,
  16,208,247,13,134,72,228,211,142,56,170,22,
  17,23,18,10,253,21,13,250,235,28,35,5,
  9,223,159,178,13,16,30,207,81,203,227,64,
  35,11,0,223,150,252,13,7,23,220,76,221,
  206,37,203,16,40,64,168,22,0,224,35,84,
  184,215,55,159,191,185,207,53,71,6,250,192,
  61,162,242,230,18,228,178,53,182,214,138,20,
  214,29,181,206,213,68,129,48,71,4,228,250,
  80,17,19,73,95,55,135,5,225,157,230,45,
  247,0,91,212,57,196,253,223,22,245,24,220,
  143,180,30,3,130,77,240,37,172,245,248,228,
  38,225,16,216,212,222,37,219,235,61,184,246,
  197,29,197,10,223,93,253,155,40,58,151,224,
  115,52,24,7,241,243,185,211,38,46,197,81,
  150,203,26,60,10,24,0,168,9,211,254,235,
  206,228,243,218,237,136,25,33,182,53,247,232,
  222,146,5,235,236,214,17,239,65,188,228,157,
  207,30,241,40,162,245,140,243,224,251,182,234,
  69,60,200,7,127,205,236,195,241,238,28,36,
  228,244,174,46,214,214,253,252,62,62,22,241,
  231,45,19,22,187,224,54,232,228,149,32,111,
  251,245,0,253,198,185,33,44,35,232,63,243,
  20,130,238,22,212,241,208,75,251,199,212,83,
  57,82,184,211,12,29,245,206,80,200,242,29,
  69,254,53,214,244,5,179,226,167,221,91,22,
  237,233,32,204,253,3,221,11,233,66,198,211,
  71,156,248,85,34,30,77,196,173,23,228,207,
  223,2,239,71,38,129,20,3,50,58,249,231,
  193,228,5,19,66,66,185,204,65,249,154,32,
  37,233,37,22,63,28,12,242,239,241,239,49,
  255,216,34,57,43,234,87,196,219,32,37,245,
  195,220,14,1,235,165,235,2,197,24,20,38,
  8,2,237,51,224,96,4,221,19,239,67,170,
  59,42,203,66,52,243,12,80,244,19,240,193,
  162,30,226,171,61,24,169,12,108,134,191,221,
  212,150,173,54,168,210,179,72,254,207,232,170,
  198,98,74,219,37,157,66,173,203,161,53,67,
  185,68,22,249,23,167,223,159,53,142,196,170,
  27,164,65,161,176,15,101,17,218,179,55,84,
  18,208,203,210,165,178,208,220,142,27,202,195,
  81,166,109,12,10,102,187,252,156,174,223,173,
  206,20,239,239,80,57,10,217,167,240,192,166,
  253,77,200,139,160,1,79,211,12,212,252,129,
  22,94,98,43,189,100,71,233,191,141,230,16,
  138,37,85,171,159,159,31,150,8,146,95,192,
  67,79,150,178,154,33,173,20,165,136,227,109,
  200,221,224,28,171,145,200,200,206,88,170,105,
  141,92,59,30,168,38,103,135,101,93,42,219,
  212,240,53,248,22,204,62,136,85,143,228,76,
  220,34,20,82,67,29,220,222,162,247,172,199,
  50,187,89,10,176,52,5,255,32,109,6,178,
  38,230,156,50,244,197,204,45,202,30,7,85,
  109,113,75,19,188,242,84,141,49,169,97,65,
  193,233,218,25,47,200,84,120,14,47,39,234,
  20,49,110,201,196,15,66,115,9,208,184,42,
  115,252,89,225,80,36,217,15,191,223,74,214,
  34,31,228,48,249,5,25,235,98,48,95,220,
  46,61,30,116,202,216,190,127,181,253,215,7,
  247,45,41,183,207,64,33,48,161,81,6,223,
  81,167,35,60,21,31,89,43,255,78,20,5,
  254,4,240,9,212,224,19,24,111,11,75,47,
  66,63,6,2,220,70,7,152,61,60,17,215,
  26,195,66,118,124,186,71,216,241,195,72,75,
  101,86,22,156,184,225,74,78,106,73,255,195,
  232,160,235,3,231,129,42,16,121,173,4,53,
  28,22,22,21,253,27,38,46,31,225,36,92,
  71,168,252,248,216,245,29,6,81,43,197,39,
  88,213,229,89,11,108,162,239,211,79,195,188,
  216,187,71,19,106,31,73,215,182,200,103,28,
  77,9,118,189,58,29,102,12,250,166,111,232,
  6,41,14,255,237,3,183,49,243,48,181,202,
  230,238,76,222,215,12,64,23,233,110,235,246,
  254,40,22,43,114,59,73,230,13,25,11,46,
  47,57,170,193,51,207,58,16,112,4,44,5,
  21,166,74,35,67,61,127,241,74,116,47,239,
  244,226,4,25,56,29,108,183,250,92,211,22,
  15,209,196,42,22,35,78,202,10,168,209,229,
  170,89,47,23,99,223,36,208,64,226,232,252,
  14,86,40,253,71,80,232,219,225,220,194,251,
  55,220,231,236,13,186,88,186,253,227,16,172,
  231,97,37,214,1,138,14,52,31,21,83,249,
  245,83,9,14,46,49,223,17,244,192,57,224,
  176,106,120,101,74,18,13,60,87,251,236,36,
  236,168,235,185,201,239,204,201,97,18,105,65,
  60,9,45,235,250,84,243,78,25,217,42,203,
  213,85,22,195,12,165,164,193,38,250,255,83,
  208,8,64,233,11,72,21,184,112,96,11,20,
  3,215,198,87,99,42,93,26,105,32,247,205,
  19,194,64,1,35,195,126,42,23,102,70,197,
  195,45,71,32,63,252,6,226,203,104,40,85,
  90,221,205,9,7,27,247,215,39,29,36,243,
  191,115,255,193,192,71,94,174,212,77,170,72,
  92,179,246,59,59,99,39,5,77,58,64,254,
  225,223,217,29,246,212,24,213,66,84,56,209,
  249,68,13,189,87,10,73,167,66,240,62,227,
  78,188,117,15,94,250,69,238,206,242,103,191,
  189,234,59,190,1,58,58,251,6,127,239,77,
  231,43,6,68,88,175,75,255,78,77,115,220,
  23,34,22,51,32,64,21,187,237,15,78,35,
  253,237,81,194,19,49,210,24,3,29,20,208,
  209,238,63,233,204,200,207,83,221,37,207,253,
  12,201,25,27,55,231,160,8,191,48,223,203,
  64,108,227,78,44,0,221,223,47,216,33,21,
  193,32,71,241,193,77,251,251,232,72,215,53,
  54,213,226,49,14,32,22,241,181,35,255,196,
  30,40,240,50,9,211,85,196,59,18,43,23,
  248,51,214,41,19,64,15,56,31,52,190,235,
  2,35,251,247,68,25,57,59,31,59,41,32,
  74,17,20,70,29,16,75,43,251,62,24,53,
  203,52,16,16,10,209,232,213,188,66,91,200,
  241,212,233,66,20,192,34,63,21,197,230,58,
  240,209,76,23,32,31,47,63,55,210,51,204,
  4,23,243,224,37,249,222,207,255,127,233,219,
  195,47,185,234,53,234,62,224,216,232,6,214,
  202,248,1,16,61,7,221,195,4,8,83,93,
  10,46,88,236,91,1,16,212,196,59,18,43,
  82,249,36,27,231,207,63,110,13,87,249,64,
  45,17,251,35,82,250,12,52,242,24,21,196,
  20,89,219,106,16,24,65,36,35,69,64,243,
  250,61,15,86,32,54,1,4,12,204,14,219,
  74,250,53,92,46,35,74,249,60,47,244,1,
  15,222,17,1,14,213,23,225,252,196,248,42,
  38,28,249,29,9,68,244,56,65,49,217,227,
  246,31,255,230,207,88,229,42,64,18,121,204,
  207,210,106,215,222,200,72,2,224,85,101,243,
  227,249,9,228,42,162,51,254,244,51,245,247,
  252,227,235,228,154,250,29,201,209,230,2,160,
  234,175,58,126,35,18,163,18,17,27,209,194,
  230,76,183,218,15,94,35,213,138,55,184,211,
  127,251,44,27,27,219,111,196,207,187,86,174,
  7,30,10,6,210,240,255,7,34,61,2,6,
  190,51,30,209,92,246,247,25,224,30,150,0,
  1,55,211,10,239,237,245,185,53,98,245,199,
  251,210,150,7,6,243,199,238,30,166,143,232,
  204,38,157,249,72,199,27,181,62,65,35,210,
  13,248,175,18,19,62,172,207,37,242,63,65,
  204,58,243,50,223,229,228,5,4,197,36,70,
  218,235,168,41,50,212,65,70,176,212,231,214,
  2,113,8,217,18,22,143,60,55,176,223,29,
  39,229,7,35,208,109,8,73,86,224,55,181,
  226,239,122,202,233,204,185,23,53,11,19,170,
  7,2,3,46,206,13,50,229,187,208,252,1,
  74,163,22,20,61,213,166,72,64,229,19,250,
  187,217,233,240,42,123,14,54,1,224,186,33,
  216,214,217,241,18,174,243,7,56,10,4,38,
  94,166,53,20,241,35,127,208,174,24,175,44,
  46,244,127,60,218,19,223,81,157,215,55,217,
  4,61,10,39,73,182,43,247,48,243,187,221,
  75,56,53,18,192,246,235,51,215,58,254,233,
  67,41,199,62,68,92,218,40,55,45,195,57,
  240,113,202,64,109,213,12,38,41,210,105,22,
  204,71,103,88,204,192,15,215,40,65,80,28,
  161,199,76,0,206,64,118,41,46,220,3,57,
  5,183,8,64,255,54,207,23,25,254,69,230,
  34,126,37,55,232,224,203,39,57,243,215,70,
  216,0,207,87,201,111,172,88,1,216,70,251,
  66,186,53,81,235,42,106,90,240,187,47,66,
  246,9,50,247,180,52,215,191,251,193,5,219,
  105,43,89,56,238,3,182,27,236,63,255,251,
  222,6,63,227,215,91,4,2,86,218,207,25,
  94,93,200,72,218,4,223,206,198,73,42,44,
  56,196,74,45,62,178,75,20,250,248,14,91,
  210,241,0,51,89,244,193,222,84,12,28,35,
  235,33,168,9,166,235,12,64,226,244,116,182,
  64,207,54,239,16,218,214,249,232,210,213,127,
  35,6,17,212,250,174,30,222,46,248,185,30,
  237,188,250,208,220,234,157,223,192,71,61,46,
  47,62,181,222,4,80,219,220,71,16,252,61,
  45,9,39,1,3,254,201,38,2,237,250,221,
  217,11,16,237,10,235,54,227,211,12,22,76,
  65,252,16,28,209,233,4,228,237,174,56,18,
  37,41,220,221,76,1,22,23,194,3,171,21,
  188,44,249,240,29,55,3,227,51,33,206,38,
  65,11,248,242,79,252,12,83,48,56,204,20,
  160,218,19,222,221,51,60,177,208,210,241,34,
  195,0,213,53,65,14,4,68,220,63,237,28,
  1,13,251,10,0,76,37,64,230,240,202,11,
  163,47,172,16,202,5,218,231,55,14,184,225,
  14,29,213,236,239,8,250,233,224,34,229,212,
  22,17,0,8,199,227,243,40,249,240,39,33,
  18,238,13,34,249,35,222,205,207,189,38,211,
  238,246,83,218,192,222,35,24,37,244,45,11,
  240,221,46,204,199,11,11,4,228,31,146,247,
  23,9,1,213,18,0,242,37,25,7,38,50,
  251,33,212,25,254,36,241,39,228,23,207,207,
  235,8,31,225,7,223,216,237,230,33,237,8,
  226,248,48,253,181,237,249,2,210,42,76,243,
  61,228,239,5,224,129,79,177,237,26,13,42,
  11,64,242,235,245,47,177,210,28,236,247,225,
  206,52,33,38,227,46,204,14,25,0,191,27,
  218,199,214,37,45,14,248,205,32,35,18,222,
  254,20,206,168,169,168,14,5,223,55,43,240,
  177,224,77,2,59,246,254,189,31,205,254,165,
  238,249,7,44,216,241,239,209,233,244,210,151,
  242,35,125,92,14,224,244,216,47,242,73,61,
  46,13,211,12,210,18,110,90,245,54,16,233,
  187,26,92,65,3,250,238,25,80,216,192,252,
  13,166,218,57,38,245,243,181,175,101,56,2,
  231,75,45,79,55,194,215,179,9,69,112,77,
  247,247,122,233,22,205,46,96,25,252,45,213,
  65,21,84,215,186,254,242,233,249,231,3,32,
  19,229,108,13,60,229,46,43,242,220,208,46,
  228,15,30,237,42,224,20,7,23,45,209,217,
  247,21,48,63,18,239,175,31,224,8,242,174,
  219,48,55,49,239,58,127,97,61,82,243,2,
  248,1,3,5,47,20,255,75,233,59,66,230,
  240,217,41,39,36,211,109,33,209,14,249,7,
  37,7,9,90,74,210,35,7,64,33,21,40,
  37,218,255,195,238,21,56,58,197,88,57,253,
  5,247,202,226,61,51,54,239,59,71,255,65,
  35,235,253,194,187,237,169,255,235,49,10,84,
  192,233,239,141,30,250,57,159,182,212,23,161,
  28,216,72,204,204,144,20,59,20,24,240,204,
  24,53,172,57,41,189,232,73,173,105,212,220,
  250,114,17,13,106,222,16,238,213,238,62,77,
  157,16,39,231,195,66,234,239,12,251,165,210,
  42,205,44,95,232,63,246,184,190,46,65,20,
  246,192,31,218,241,199,227,7,3,142,33,21,
  235,94,2,225,244,255,34,218,48,160,173,21,
  167,71,190,180,230,71,250,207,89,7,37,237,
  243,7,106,40,212,58,231,230,244,1,222,201,
  23,9,253,19,20,41,42,48,198,8,7,175,
  207,19,20,155,174,228,28,175,53,23,6,252,
  7,203,61,17,47,91,2,27,34,23,33,191,
  210,11,161,10,183,35,245,236,217,79,194,7,
  20,10,103,51,62,40,127,26,162,13,201,12,
  191,107,90,18,42,83,234,29,250,29,249,195,
  72,88,19,232,7,242,27,242,17,91,78,31,
  245,4,28,69,202,183,37,251,46,21,30,79,
  235,67,46,74,9,46,33,95,237,127,1,29,
  64,60,51,20,48,217,244,7,70,45,251,204,
  194,86,254,25,191,37,245,77,189,50,247,221,
  78,19,53,25,22,69,22,15,236,224,173,33,
  228,63,20,39,51,8,120,50,55,243,28,105,
  234,249,70,73,70,82,53,202,219,40,177,86,
  38,13,240,43,17,93,183,29,17,215,149,215,
  47,69,30,1,242,244,213,233,215,249,208,250,
  193,31,181,17,0,54,37,21,29,65,12,207,
  68,56,222,226,179,213,61,33,59,196,75,24,
  178,182,225,86,25,53,15,18,170,76,54,70,
  43,66,213,88,239,6,7,171,44,55,178,239,
  160,241,206,48,159,247,14,27,211,25,252,200,
  216,4,28,192,32,227,9,151,34,180,250,92,
  229,22,196,196,73,32,233,168,152,228,232,165,
  228,141,244,45,3,221,204,2,29,111,233,194,
  43,58,193,168,218,47,220,236,150,79,180,2,
  129,238,162,12,43,232,114,199,24,227,89,251,
  220,242,21,33,242,84,47,37,208,198,20,137,
  195,171,225,238,5,17,227,29,104,41,223,207,
  135,251,225,186,204,148,28,4,18,221,255,69,
  223,117,42,37,201,75,209,194,32,19,252,57,
  206,48,198,207,160,216,200,196,55,199,83,17,
  243,47,32,215,250,179,231,231,19,245,15,230,
  197,162,191,226,43,132,249,97,240,20,220,254,
  103,22,23,151,199,234,240,170,233,179,239,255,
  204,222,249,251,230,49,244,240,245,252,1,182,
  13,70,253,73,145,15,170,186,164,242,221,25,
  92,26,96,55,34,64,10,26,210,216,14,190,
  35,221,53,5,151,46,62,196,19,240,226,10,
  214,235,219,43,255,24,21,54,14,55,202,245,
  198,247,55,6,43,36,251,174,190,117,252,222,
  253,198,15,242,68,49,247,62,8,132,77,201,
  1,72,14,12,59,190,247,77,59,199,25,221,
  235,213,252,16,38,167,34,0,147,233,231,8,
  188,202,181,33,218,58,4,202,13,66,188,228,
  22,9,202,21,129,14,58,196,77,2,216,202,
  15,53,168,168,68,1,55,182,242,36,219,44,
  31,204,242,187,191,50,57,213,82,4,22,74,
  40,188,182,226,7,242,247,2,221,8,223,65,
  134,13,242,239,10,239,133,208,211,14,47,223,
  45,252,247,247,245,22,178,12,142,238,237,243,
  57,43,206,174,8,68,2,167,28,206,34,166,
  89,37,219,196,241,210,218,212,239,218,1,30,
  24,208,82,8,246,191,208,242,42,225,86,210,
  211,224,115,52,55,37,8,4,253,62,237,254,
  226,236,238,224,18,3,248,37,219,25,17,251,
  255,230,0,53,38,16,65,248,78,49,222,227,
  76,203,226,80,238,219,165,24,244,35,45,80,
  35,127,236,49,104,10,47,34,242,70,68,251,
  235,60,79,63,205,68,118,20,78,224,40,253,
  42,242,43,251,46,205,28,5,86,38,12,233,
  252,44,56,17,214,24,71,29,40,10,243,31,
  29,94,228,49,44,209,216,20,40,20,178,25,
  36,78,228,28,210,23,207,11,10,9,29,186,
  249,32,52,83,216,227,3,74,206,247,90,253,
  38,20,40,200,196,235,55,251,40,61,20,2,
  63,253,9,31,201,236,41,49,20,43,12,47,
  34,55,253,3,49,104,42,65,49,30,231,44,
  60,218,214,23,52,58,211,241,45,36,183,80,
  0,16,248,206,67,72,81,74,217,219,72,62,
  28,21,147,8,6,197,59,220,175,177,237,212,
  211,241,113,232,63,216,23,52,254,81,163,16,
  32,247,59,93,255,214,218,20,175,58,62,178,
  2,46,197,220,53,24,43,80,239,66,183,182,
  24,221,0,194,51,174,127,67,171,27,84,140,
  214,231,245,216,38,245,6,44,75,56,238,31,
  5,199,163,46,54,61,51,247,49,2,31,66,
  4,15,160,201,228,254,35,98,47,176,252,212,
  251,48,228,229,154,51,190,22,8,253,180,79,
  247,23,20,207,203,243,14,202,26,165,59,203,
  177,209,39,193,44,216,0,16,169,207,201,220,
  18,201,220,69,186,16,183,219,13,199,95,201,
  15,222,17,56,183,248,210,56,206,34,28,51,
  53,237,222,67,195,19,58,59,176,30,23,183,
  225,9,170,2,14,50,228,220,29,183,211,192,
  48,27,120,30,203,70,203,219,65,220,157,244,
  71,214,42,203,144,21,20,238,183,82,222,36,
  8,13,96,35,116,11,228,16,172,48,246,9,
  205,13,22,39,49,42,0,7,34,108,38,183,
  70,22,1,65,69,249,175,61,7,233,15,56,
  200,62,248,114,169,243,191,73,5,201,185,178,
  242,187,79,5,189,234,74,211,185,18,42,53,
  211,51,167,249,34,40,24,56,245,207,3,252,
  57,6,129,235,65,203,45,244,29,48,49,225,
  9,75,54,6,83,206,11,2,244,73,33,38,
  219,248,87,15,12,51,73,28,28,68,203,203,
  19,189,39,45,242,166,85,20,1,197,52,253,
  254,23,52,219,161,209,168,254,45,253,120,10,
  17,207,208,255,255,189,6,111,13,49,1,220,
  240,208,1,179,236,8,3,26,76,29,3,17,
  56,252,199,48,190,16,26,215,50,29,197,10,
  168,224,185,217,209,239,16,194,21,176,103,38,
  255,244,197,22,2,226,21,7,253,194,31,234,
  244,220,213,225,197,172,25,204,51,39,236,35,
  228,220,43,16,215,206,0,207,224,3,15,55,
  22,232,65,36,226,206,64,39,222,185,238,225,
  218,166,27,167,37,207,33,54,222,23,129,7,
  57,41,194,155,215,36,164,42,51,51,0,26,
  232,203,238,21,29,13,243,9,202,254,4,218,
  66,80,201,215,10,58,230,34,26,67,221,215,
  151,190,45,253,248,85,228,183,154,8,73,15,
  1,29,29,221,23,172,46,220,206,53,244,51,
  149,220,174,6,52,12,250,190,217,57,225,200,
  39,234,232,198,240,252,13,43,76,31,245,235,
  242,15,234,230,6,237,216,43,57,249,211,247,
  5,250,253,11,244,217,51,19,230,3,71,29,
  200,177,243,247,15,7,56,237,207,157,57,191,
  56,0,183,62,253,236,228,215,8,218,140,175,
  1,69,237,63,252,251,175,234,63,9,16,227,
  193,14,45,226,44,170,242,5,201,235,197,11,
  220,16,176,208,52,44,1,218,249,226,61,200,
  220,66,11,205,162,209,2,223,53,47,234,219,
  238,139,219,203,220,226,249,245,3,248,202,8,
  64,57,241,197,6,223,174,21,11,69,34,63,
  5,22,39,251,227,3,196,215,201,154,172,245,
  215,226,217,248,218,43,197,199,245,39,16,180,
  191,176,204,244,171,222,49,0,231,159,36,205,
  9,11,241,207,245,129,25,216,203,201,29,239,
  202,25,245,245,210,34,216,171,210,55,242,214,
  10,236,204,50,25,250,199,216,219,63,234,206,
  44,180,252,207,60,68,255,176,56,234,196,253,
  57,226,197,30,245,214,28,242,166,7,45,43,
  9,197,22,204,1,27,42,13,30,226,227,25,
  219,0,211,246,174,43,187,27,233,77,211,166,
  8,188,154,178,221,25,254,214,186,205,220,219,
  107,61,179,104,225,214,33,2,73,228,146,247,
  205,50,26,64,69,63,236,215,190,198,246,196,
  209,7,39,2,201,23,56,235,95,154,83,9,
  83,130,79,241,222,36,37,55,254,71,184,175,
  201,23,208,21,36,43,129,246,198,76,11,241,
  235,219,4,172,105,39,23,26,69,240,28,206,
  221,77,180,101,238,246,176,242,206,56,176,197,
  208,236,64,35,49,29,211,247,204,28,92,66,
  51,193,63,83,238,227,53,54,11,215,79,52,
  195,219,239,197,204,211,63,15,227,55,144,234,
  12,234,10,3,17,32,69,21,52,246,203,112,
  245,234,199,28,95,2,31,230,215,94,244,36,
  173,203,246,247,185,36,234,181,181,39,30,181,
  160,218,0,55,38,152,189,32,86,236,3,35,
  27,227,34,87,70,52,16,61,86,204,53,230,
  231,177,11,152,246,201,71,189,67,168,196,158,
  66,179,38,69,199,27,8,193,230,71,174,49,
  48,200,249,45,8,247,238,223,15,144,233,46,
  57,48,231,43,223,193,93,231,231,46,42,252,
  213,193,42,55,188,16,43,6,247,213,177,234,
  39,183,15,9,52,152,225,254,199,196,45,187,
  64,184,253,18,227,207,26,63,40,0,28,30,
  211,56,37,234,223,16,8,161,66,50,37,196,
  63,180,168,31,57,223,47,170,171,188,7,209,
  57,39,220,253,212,129,51,177,227,173,242,52,
  179,208,42,170,211,35,58,45,250,7,62,169,
  229,191,225,195,186,157,56,211,57,255,217,51,
  251,7,16,216,5,87,33,20,36,32,45,209,
  24,193,190,30,201,33,183,27,5,190,222,246,
  9,63,34,183,177,234,241,53,181,218,233,35,
  219,48,28,224,27,250,251,247,220,75,202,253,
  49,33,126,231,242,48,20,33,201,225,15,249,
  210,55,93,220,68,253,239,17,49,235,1,52,
  4,11,61,27,216,22,240,239,253,121,37,32,
  30,49,226,208,246,251,194,246,10,20,242,201,
  22,242,211,12,206,245,224,2,83,12,25,34,
  60,192,72,235,67,2,98,62,243,251,218,216,
  194,25,37,14,34,252,102,1,249,3,60,68,
  219,224,224,253,8,238,79,30,69,67,12,40,
  224,97,207,206,13,212,58,40,66,21,206,221,
  207,251,28,29,202,78,210,49,34,7,244,90,
  48,170,67,65,66,182,67,12,43,183,91,49,
  240,41,47,252,183,173,36,22,236,221,127,243,
  239,87,205,57,185,27,189,203,213,48,224,41,
  66,241,236,9,18,113,195,166,92,228,52,41,
  92,3,222,190,199,174,249,238,217,31,76,79,
  212,247,194,2,60,253,54,252,36,163,111,204,
  10,208,127,247,208,242,18,25,184,11,18,33,
  192,210,11,16,191,246,1,89,11,201,25,230,
  194,14,226,30,5,28,213,47,41,23,177,29,
  15,48,60,235,43,66,155,51,201,211,83,203,
  216,2,53,50,213,185,52,67,3,238,241,12,
  35,20,34,35,187,0,39,74,59,30,49,247,
  169,31,197,241,226,246,62,254,253,42,230,224,
  253,232,198,219,233,237,61,222,70,45,204,202,
  204,23,241,33,247,218,228,236,12,35,229,236,
  236,242,229,195,6,47,33,9,242,33,198,220,
  60,27,4,54,251,24,32,14,208,236,123,58,
  225,24,7,226,244,40,18,1,197,193,226,246,
  255,62,251,218,243,254,31,2,135,23,197,193,
  219,249,14,235,28,25,158,224,218,255,53,232,
  95,16,220,177,11,247,14,198,20,12,30,50,
  8,6,252,202,0,219,45,254,51,203,44,66,
  214,35,208,7,39,250,162,207,254,155,237,55,
  17,232,204,218,32,46,229,135,214,23,11,9,
  32,147,73,235,22,163,218,25,14,30,212,216,
  249,19,169,247,42,246,208,37,156,49,181,54,
  211,199,209,235,19,29,38,4,33,22,91,40,
  177,231,169,50,242,50,255,233,231,252,158,157,
  211,165,205,67,244,220,24,150,9,212,188,188,
  145,3,47,182,191,131,3,244,24,171,67,29,
  216,7,0,212,8,55,143,204,1,224,202,80,
  206,47,149,224,166,32,184,41,127,205,101,23,
  193,219,26,195,170,223,240,60,233,240,252,220,
  250,245,162,6,23,173,15,19,39,239,179,206,
  56,1,230,206,206,8,248,231,231,225,252,9,
  237,145,63,72,215,31,49,53,36,5,221,181,
  232,8,198,91,195,60,194,219,200,31,170,223,
  81,245,41,10,9,4,107,217,255,244,245,26,
  204,34,69,28,78,251,218,27,28,6,66,7,
  192,235,38,13,254,56,51,0,216,8,119,236,
  48,27,65,47,34,50,211,88,77,90,222,20,
  51,19,226,51,250,59,171,206,43,99,14,42,
  32,63,51,34,212,64,197,48,44,32,102,30,
  237,250,26,251,6,19,6,61,236,231,246,193,
  225,59,253,84,218,230,221,246,221,49,3,2,
  17,215,127,213,14,240,57,13,42,224,3,80,
  27,33,51,7,1,14,13,21,244,2,234,38,
  219,113,30,60,58,37,192,237,21,29,27,64,
  238,2,97,245,1,35,56,26,232,61,33,75,
  233,20,252,188,46,208,48,44,212,27,19,236,
  15,236,65,20,27,18,25,192,4,37,43,224,
  33,218,254,80,68,227,23,66,69,5,53,55,
  213,80,208,70,235,115,22,37,202,244,12,240,
  228,226,243,20,6,254,117,53,62,0,47,222,
  20,205,243,246,203,253,93,121,225,32,21,21,
  253,104,112,0,182,26,152,14,249,254,37,1,
  70,20,217,247,98,96,200,185,219,235,114,14,
  223,223,60,46,68,82,49,211,2,231,105,22,
  59,209,62,199,214,91,8,106,255,33,198,185,
  102,245,82,194,96,229,37,110,221,116,68,90,
